<unk>	0
<s>	0
</s>	0
[PAD]	0
[UNK]	0
[CLS]	0
[SEP]	0
[MASK]	0
[BOS]	0
[EOS]	0
en	-0
er	-1
in	-2
▁t	-3
ch	-4
▁a	-5
▁d	-6
▁w	-7
▁s	-8
▁th	-9
nd	-10
ie	-11
es	-12
is	-13
at	-14
on	-15
it	-16
▁m	-17
an	-18
as	-19
re	-20
▁the	-21
▁b	-22
▁h	-23
ich	-24
▁o	-25
▁e	-26
ll	-27
▁u	-28
▁g	-29
or	-30
ou	-31
ar	-32
▁f	-33
▁in	-34
te	-35
ing	-36
▁I	-37
▁n	-38
▁S	-39
le	-40
▁c	-41
▁p	-42
▁die	-43
▁A	-44
▁to	-45
ir	-46
▁v	-47
al	-48
▁is	-49
▁ein	-50
▁of	-51
▁and	-52
us	-53
om	-54
ig	-55
▁W	-56
▁l	-57
ed	-58
▁T	-59
▁k	-60
▁und	-61
un	-62
▁be	-63
▁z	-64
ten	-65
ur	-66
el	-67
ut	-68
▁das	-69
ion	-70
▁D	-71
▁M	-72
▁y	-73
▁that	-74
et	-75
ro	-76
ent	-77
im	-78
▁ha	-79
ic	-80
▁we	-81
ere	-82
ra	-83
st	-84
▁B	-85
▁E	-86
▁you	-87
em	-88
▁der	-89
▁wh	-90
hr	-91
ter	-92
ve	-93
▁zu	-94
il	-95
ow	-96
▁wir	-97
▁G	-98
▁ist	-99
▁it	-100
▁se	-101
am	-102
▁an	-103
ot	-104
icht	-105
ber	-106
gen	-107
id	-108
ach	-109
se	-110
ier	-111
ind	-112
lich	-113
ge	-114
ol	-115
ben	-116
sch	-117
uf	-118
▁re	-119
▁F	-120
▁K	-121
▁U	-122
ke	-123
▁un	-124
all	-125
▁P	-126
▁ver	-127
▁so	-128
▁on	-129
▁L	-130
▁ich	-131
▁es	-132
he	-133
ct	-134
▁was	-135
ay	-136
▁H	-137
▁me	-138
ung	-139
▁st	-140
▁And	-141
▁er	-142
ver	-143
▁N	-144
▁al	-145
de	-146
if	-147
▁den	-148
um	-149
▁this	-150
▁sie	-151
▁-	-152
and	-153
den	-154
▁Sie	-155
▁j	-156
ck	-157
ür	-158
uch	-159
nen	-160
op	-161
sen	-162
ld	-163
▁all	-164
▁nicht	-165
be	-166
ation	-167
▁"	-168
▁von	-169
▁--	-170
▁for	-171
ce	-172
▁R	-173
▁dass	-174
ht	-175
ine	-176
▁eine	-177
ann	-178
▁ab	-179
▁V	-180
▁r	-181
▁auf	-182
▁als	-183
ill	-184
▁im	-185
est	-186
▁do	-187
der	-188
ag	-189
hen	-190
▁Und	-191
her	-192
▁ne	-193
▁mit	-194
ess	-195
▁ge	-196
ly	-197
▁J	-198
ith	-199
ste	-200
▁are	-201
isch	-202
▁sch	-203
▁wie	-204
ally	-205
ul	-206
▁uns	-207
▁C	-208
▁man	-209
aus	-210
enn	-211
▁war	-212
▁with	-213
oo	-214
▁le	-215
▁have	-216
▁So	-217
au	-218
kt	-219
▁he	-220
men	-221
▁they	-222
▁sich	-223
os	-224
out	-225
▁Th	-226
▁mo	-227
ers	-228
we	-229
▁can	-230
▁as	-231
▁Z	-232
▁O	-233
▁wor	-234
ab	-235
iv	-236
ant	-237
ad	-238
▁Ich	-239
ib	-240
über	-241
▁We	-242
▁pro	-243
ort	-244
ust	-245
ern	-246
▁i	-247
und	-248
▁In	-249
ön	-250
▁sind	-251
▁what	-252
▁com	-253
ies	-254
▁1	-255
▁sp	-256
▁go	-257
▁at	-258
▁dies	-259
af	-260
▁St	-261
▁für	-262
pp	-263
ould	-264
ien	-265
ze	-266
▁fr	-267
▁haben	-268
art	-269
▁ex	-270
ist	-271
ik	-272
▁about	-273
ne	-274
ese	-275
▁hat	-276
▁not	-277
00	-278
▁aus	-279
▁The	-280
▁um	-281
iel	-282
▁ch	-283
▁über	-284
ive	-285
ahr	-286
og	-287
oll	-288
▁des	-289
▁Le	-290
hl	-291
▁de	-292
▁or	-293
▁som	-294
▁kön	-295
ight	-296
▁wer	-297
▁dem	-298
ein	-299
▁Das	-300
end	-301
▁Sch	-302
qu	-303
▁Es	-304
ate	-305
▁my	-306
▁there	-307
mer	-308
▁pe	-309
ike	-310
▁Wir	-311
▁sa	-312
ink	-313
▁ma	-314
ople	-315
igen	-316
."	-317
▁con	-318
▁sh	-319
pt	-320
ity	-321
▁Er	-322
▁It	-323
th	-324
och	-325
▁one	-326
▁people	-327
▁diese	-328
ff	-329
elt	-330
▁like	-331
▁from	-332
ide	-333
▁Be	-334
tw	-335
ran	-336
esch	-337
ass	-338
ure	-339
ute	-340
▁te	-341
▁ar	-342
ause	-343
▁us	-344
▁da	-345
▁also	-346
▁our	-347
ang	-348
now	-349
ensch	-350
▁einen	-351
▁wenn	-352
▁but	-353
▁bec	-354
ast	-355
ru	-356
zen	-357
▁Die	-358
ook	-359
▁out	-360
▁Ge	-361
▁get	-362
▁ih	-363
ap	-364
ieren	-365
ted	-366
▁Ar	-367
▁know	-368
▁just	-369
▁2	-370
▁Pro	-371
▁können	-372
▁An	-373
▁pl	-374
ick	-375
▁thing	-376
▁werden	-377
ungen	-378
ear	-379
iert	-380
▁Y	-381
▁oder	-382
▁vor	-383
▁sein	-384
ild	-385
▁her	-386
▁them	-387
alk	-388
oug	-389
▁ent	-390
ub	-391
▁But	-392
ite	-393
per	-394
▁these	-395
▁very	-396
▁up	-397
▁if	-398
▁think	-399
ah	-400
▁who	-401
orm	-402
our	-403
▁Ver	-404
ige	-405
ound	-406
one	-407
▁mach	-408
iz	-409
▁kann	-410
▁Al	-411
▁by	-412
ain	-413
▁aber	-414
ken	-415
▁einer	-416
▁Mensch	-417
od	-418
▁auch	-419
ack	-420
▁going	-421
lle	-422
▁einem	-423
ät	-424
ial	-425
llen	-426
▁gen	-427
ud	-428
▁some	-429
eren	-430
▁see	-431
▁Un	-432
▁act	-433
▁Aber	-434
olog	-435
▁when	-436
pl	-437
▁nach	-438
ob	-439
ibt	-440
▁dar	-441
zt	-442
ard	-443
nt	-444
änd	-445
▁your	-446
age	-447
ry	-448
schaf	-449
▁en	-450
ame	-451
▁nur	-452
▁more	-453
ft	-454
▁Re	-455
▁because	-456
▁mein	-457
ert	-458
▁year	-459
▁had	-460
ischen	-461
reat	-462
▁wird	-463
▁etw	-464
▁sehr	-465
ör	-466
ime	-467
▁will	-468
to	-469
ble	-470
▁Menschen	-471
urch	-472
▁hier	-473
ise	-474
fen	-475
▁would	-476
ück	-477
▁ever	-478
ue	-479
▁how	-480
ug	-481
ect	-482
▁which	-483
itt	-484
ond	-485
ose	-486
ple	-487
ood	-488
äch	-489
▁look	-490
ous	-491
are	-492
▁their	-493
▁am	-494
keit	-495
▁were	-496
ak	-497
▁–	-498
▁Te	-499
▁work	-500
▁really	-501
issen	-502
ri	-503
ther	-504
▁mich	-505
ign	-506
hal	-507
sp	-508
ually	-509
hing	-510
chen	-511
▁gibt	-512
▁inter	-513
me	-514
▁♫	-515
ong	-516
heit	-517
▁Ze	-518
▁Jahr	-519
▁way	-520
▁gl	-521
▁gro	-522
▁wur	-523
▁per	-524
▁dann	-525
du	-526
▁vie	-527
▁world	-528
ven	-529
chn	-530
rie	-531
iff	-532
▁has	-533
▁qu	-534
sten	-535
▁Ih	-536
▁here	-537
lie	-538
▁ste	-539
▁fe	-540
wo	-541
▁Sp	-542
▁ihr	-543
ater	-544
ions	-545
ment	-546
ia	-547
▁noch	-548
▁time	-549
ace	-550
▁You	-551
ough	-552
▁etwas	-553
ommen	-554
▁then	-555
ore	-556
schaft	-557
▁Welt	-558
▁other	-559
▁This	-560
▁Ein	-561
act	-562
än	-563
tern	-564
▁into	-565
ac	-566
▁every	-567
▁mir	-568
▁say	-569
▁Se	-570
▁don	-571
▁sehen	-572
ren	-573
▁Als	-574
▁habe	-575
▁bet	-576
sel	-577
ank	-578
auf	-579
ische	-580
▁mus	-581
▁could	-582
▁dieser	-583
▁actually	-584
▁pr	-585
▁durch	-586
▁mehr	-587
▁zur	-588
beit	-589
ip	-590
▁ke	-591
ens	-592
ult	-593
lichen	-594
les	-595
▁want	-596
▁bra	-597
▁sag	-598
▁Wh	-599
ner	-600
▁where	-601
▁jed	-602
▁years	-603
yste	-604
▁things	-605
▁now	-606
▁ag	-607
ring	-608
▁gr	-609
▁Leben	-610
ED	-611
▁did	-612
▁viel	-613
cht	-614
liche	-615
ical	-616
▁Now	-617
rans	-618
etzt	-619
▁Fra	-620
▁alle	-621
▁sc	-622
form	-623
▁somet	-624
▁Wenn	-625
▁find	-626
ice	-627
▁been	-628
▁TED	-629
▁ro	-630
▁bei	-631
zu	-632
▁Ch	-633
▁They	-634
▁make	-635
blem	-636
üs	-637
▁any	-638
▁cl	-639
▁comp	-640
ome	-641
▁diff	-642
▁happ	-643
ile	-644
▁po	-645
gan	-646
ire	-647
hn	-648
iver	-649
▁Zeit	-650
ystem	-651
▁ob	-652
ake	-653
▁let	-654
▁no	-655
▁He	-656
▁zum	-657
fach	-658
▁tra	-659
▁need	-660
fl	-661
ory	-662
rei	-663
ph	-664
▁gan	-665
▁unsere	-666
klich	-667
▁wurde	-668
ans	-669
▁mö	-670
inge	-671
ife	-672
irst	-673
▁part	-674
▁said	-675
ähr	-676
▁unter	-677
ree	-678
ßen	-679
mt	-680
▁over	-681
wer	-682
▁bl	-683
▁sel	-684
▁wür	-685
▁right	-686
gt	-687
chte	-688
che	-689
▁Ihnen	-690
▁lo	-691
▁Gesch	-692
ungs	-693
ys	-694
▁ihre	-695
assen	-696
▁zwe	-697
▁something	-698
able	-699
chnolog	-700
iter	-701
▁machen	-702
als	-703
▁back	-704
ger	-705
ount	-706
illion	-707
▁wo	-708
ark	-709
fü	-710
▁two	-711
▁3	-712
▁than	-713
ents	-714
▁bu	-715
▁Ne	-716
000	-717
▁much	-718
▁einfach	-719
pr	-720
aten	-721
▁got	-722
▁wirklich	-723
▁call	-724
acht	-725
▁tun	-726
▁Kind	-727
▁ze	-728
▁new	-729
▁kind	-730
▁immer	-731
ations	-732
bst	-733
▁first	-734
▁those	-735
▁talk	-736
erson	-737
▁meine	-738
▁bes	-739
ange	-740
ittle	-741
fr	-742
▁weil	-743
ord	-744
▁kon	-745
erst	-746
▁fü	-747
isten	-748
▁little	-749
▁imp	-750
own	-751
av	-752
cent	-753
▁Gr	-754
▁Also	-755
ale	-756
▁woll	-757
..	-758
▁lot	-759
▁res	-760
▁ra	-761
?"	-762
▁beg	-763
iger	-764
rit	-765
▁spe	-766
eln	-767
way	-768
▁Or	-769
▁she	-770
▁his	-771
▁ph	-772
▁bis	-773
▁unser	-774
▁ac	-775
ase	-776
ats	-777
▁dis	-778
hmen	-779
▁müs	-780
▁kom	-781
ath	-782
▁Was	-783
▁hatte	-784
vel	-785
▁co	-786
▁That	-787
▁pre	-788
▁most	-789
▁Man	-790
nte	-791
▁dieses	-792
uchen	-793
▁kle	-794
leich	-795
ody	-796
▁hum	-797
▁ges	-798
uen	-799
▁life	-800
är	-801
hlen	-802
▁only	-803
▁dam	-804
glich	-805
▁real	-806
ktion	-807
▁keine	-808
ition	-809
ated	-810
▁ad	-811
ely	-812
▁diesem	-813
▁wissen	-814
schie	-815
▁Leute	-816
ish	-817
ichte	-818
▁even	-819
mal	-820
▁Art	-821
▁müssen	-822
▁day	-823
ram	-824
inn	-825
bar	-826
▁thr	-827
ance	-828
▁19	-829
ok	-830
▁star	-831
xt	-832
aut	-833
igkeit	-834
ons	-835
▁soll	-836
cri	-837
▁sol	-838
erent	-839
fe	-840
▁Vor	-841
gr	-842
other	-843
▁viele	-844
iß	-845
▁pass	-846
▁lie	-847
▁vers	-848
▁take	-849
▁hel	-850
▁ide	-851
▁different	-852
▁many	-853
▁waren	-854
▁andere	-855
▁Dinge	-856
▁fl	-857
▁good	-858
▁20	-859
wn	-860
ges	-861
▁sagen	-862
▁groß	-863
▁tr	-864
unden	-865
▁Jahren	-866
▁diesen	-867
▁sagte	-868
int	-869
gl	-870
▁su	-871
▁ind	-872
ds	-873
ict	-874
▁Trans	-875
▁eines	-876
▁does	-877
▁bef	-878
▁bin	-879
▁through	-880
▁nat	-881
▁down	-882
get	-883
ors	-884
▁show	-885
ell	-886
ammen	-887
tit	-888
ont	-889
cript	-890
▁Sub	-891
▁Aus	-892
gend	-893
▁What	-894
▁around	-895
▁There	-896
off	-897
urn	-898
▁cont	-899
▁hin	-900
▁zwei	-901
ty	-902
▁5	-903
ution	-904
igt	-905
iss	-906
ient	-907
▁put	-908
▁Talk	-909
▁gew	-910
ität	-911
▁verb	-912
tel	-913
▁Wie	-914
▁Auf	-915
▁jetzt	-916
▁Me	-917
▁bek	-918
▁anderen	-919
▁kein	-920
▁wieder	-921
ience	-922
▁gut	-923
usammen	-924
cess	-925
ary	-926
ible	-927
▁em	-928
▁10	-929
ahre	-930
▁tell	-931
ichtig	-932
lleicht	-933
▁use	-934
▁Der	-935
▁off	-936
oc	-937
titles	-938
vol	-939
▁Subtitles	-940
▁Transcript	-941
ian	-942
▁being	-943
▁glau	-944
▁En	-945
ious	-946
▁Unter	-947
ought	-948
auen	-949
oss	-950
▁selbst	-951
ars	-952
▁comm	-953
▁alles	-954
igh	-955
ss	-956
▁würde	-957
ual	-958
▁problem	-959
arn	-960
ower	-961
▁Dies	-962
▁nie	-963
▁inc	-964
▁gu	-965
▁bring	-966
ekt	-967
ede	-968
att	-969
ful	-970
▁happen	-971
ep	-972
▁same	-973
▁damit	-974
▁Ind	-975
▁stud	-976
ün	-977
▁ins	-978
▁best	-979
ism	-980
▁fun	-981
▁4	-982
geb	-983
▁try	-984
▁du	-985
llt	-986
▁wen	-987
▁human	-988
ject	-989
▁Mit	-990
omen	-991
▁gem	-992
halten	-993
▁fact	-994
▁Pl	-995
tet	-996
hren	-997
tra	-998
yp	-999
▁come	-1000
iden	-1001
nis	-1002
amil	-1003
day	-1004
ost	-1005
▁geht	-1006
ces	-1007
▁Jahre	-1008
▁sur	-1009
old	-1010
▁count	-1011
▁may	-1012
▁doing	-1013
äl	-1014
▁big	-1015
▁great	-1016
formation	-1017
ting	-1018
ade	-1019
uss	-1020
▁three	-1021
▁zurück	-1022
ically	-1023
▁lang	-1024
▁gesch	-1025
ail	-1026
▁Ges	-1027
▁sm	-1028
▁system	-1029
ics	-1030
ction	-1031
▁sim	-1032
▁end	-1033
▁start	-1034
▁wä	-1035
▁hal	-1036
fter	-1037
ives	-1038
▁Her	-1039
▁Um	-1040
▁bit	-1041
ivers	-1042
▁muss	-1043
▁denn	-1044
ucht	-1045
▁weiter	-1046
▁If	-1047
▁ask	-1048
▁dec	-1049
io	-1050
kl	-1051
▁build	-1052
▁Bl	-1053
öß	-1054
▁pol	-1055
piel	-1056
▁well	-1057
▁zw	-1058
ves	-1059
▁exper	-1060
▁percent	-1061
▁produ	-1062
ating	-1063
▁ger	-1064
▁app	-1065
▁schon	-1066
thing	-1067
▁klein	-1068
▁heraus	-1069
▁ir	-1070
ving	-1071
▁bas	-1072
▁Fl	-1073
▁called	-1074
ächlich	-1075
▁hand	-1076
▁dav	-1077
ork	-1078
▁ben	-1079
üt	-1080
rä	-1081
self	-1082
ock	-1083
nten	-1084
▁pa	-1085
ize	-1086
red	-1087
▁dr	-1088
teil	-1089
▁quest	-1090
▁Arbeit	-1091
ool	-1092
agen	-1093
▁gra	-1094
ler	-1095
az	-1096
its	-1097
▁again	-1098
▁technolog	-1099
gel	-1100
▁ganz	-1101
ates	-1102
ahl	-1103
▁child	-1104
ull	-1105
ins	-1106
▁ele	-1107
▁Amer	-1108
ek	-1109
▁rel	-1110
▁vielleicht	-1111
▁Ide	-1112
bt	-1113
zent	-1114
▁ihnen	-1115
▁made	-1116
imes	-1117
▁Well	-1118
alt	-1119
▁möchte	-1120
cial	-1121
▁Teil	-1122
▁mak	-1123
▁learn	-1124
▁beh	-1125
▁zusammen	-1126
▁Afr	-1127
▁long	-1128
etz	-1129
▁For	-1130
ities	-1131
▁rem	-1132
▁import	-1133
▁Mus	-1134
▁why	-1135
▁own	-1136
hne	-1137
fahr	-1138
▁Kinder	-1139
sche	-1140
▁Land	-1141
▁einz	-1142
▁design	-1143
▁should	-1144
▁Ste	-1145
inden	-1146
uten	-1147
sam	-1148
▁sec	-1149
▁fra	-1150
esen	-1151
bs	-1152
for	-1153
▁davon	-1154
▁Gen	-1155
atsächlich	-1156
▁Geschichte	-1157
eld	-1158
entlich	-1159
zä	-1160
uter	-1161
ierte	-1162
▁person	-1163
▁entw	-1164
▁underst	-1165
ved	-1166
ichten	-1167
▁dort	-1168
▁turn	-1169
iten	-1170
▁wel	-1171
pf	-1172
▁Im	-1173
ational	-1174
ubl	-1175
onom	-1176
▁change	-1177
uß	-1178
aum	-1179
▁creat	-1180
zie	-1181
oment	-1182
▁Wissen	-1183
▁gleich	-1184
▁rec	-1185
▁Grund	-1186
pro	-1187
vor	-1188
▁Beis	-1189
▁Tag	-1190
▁Nun	-1191
hir	-1192
▁heute	-1193
angen	-1194
▁letz	-1195
▁Nach	-1196
▁thought	-1197
▁mean	-1198
▁Hier	-1199
▁feel	-1200
weise	-1201
▁play	-1202
ope	-1203
▁after	-1204
▁car	-1205
▁idea	-1206
▁genau	-1207
ielen	-1208
▁hatten	-1209
▁today	-1210
▁important	-1211
halb	-1212
rechen	-1213
▁Fre	-1214
▁cour	-1215
▁its	-1216
▁belie	-1217
▁Zu	-1218
▁Bild	-1219
ica	-1220
▁200	-1221
▁didn	-1222
äd	-1223
omp	-1224
ular	-1225
chten	-1226
erm	-1227
,000	-1228
erg	-1229
anden	-1230
ix	-1231
▁ihn	-1232
hör	-1233
▁help	-1234
▁könnte	-1235
atz	-1236
▁him	-1237
aw	-1238
▁Thank	-1239
ändern	-1240
▁jem	-1241
ane	-1242
olle	-1243
▁last	-1244
▁drei	-1245
▁started	-1246
▁All	-1247
▁einige	-1248
body	-1249
pen	-1250
ings	-1251
iving	-1252
oren	-1253
gar	-1254
▁exam	-1255
vent	-1256
stehen	-1257
▁Diese	-1258
▁med	-1259
imm	-1260
orn	-1261
mlich	-1262
reich	-1263
▁kl	-1264
atur	-1265
▁might	-1266
▁wollen	-1267
▁understand	-1268
stell	-1269
nde	-1270
▁Gl	-1271
▁Kl	-1272
▁darüber	-1273
ts	-1274
asser	-1275
▁story	-1276
▁paar	-1277
▁sond	-1278
▁better	-1279
▁before	-1280
bei	-1281
ave	-1282
▁still	-1283
ility	-1284
▁went	-1285
▁power	-1286
▁eff	-1287
gram	-1288
ogra	-1289
▁wurden	-1290
▁schw	-1291
▁Ab	-1292
ists	-1293
ina	-1294
▁gehen	-1295
▁meiner	-1296
▁give	-1297
▁seine	-1298
▁course	-1299
tent	-1300
▁nun	-1301
ital	-1302
ov	-1303
ather	-1304
utzen	-1305
erv	-1306
▁able	-1307
▁bess	-1308
▁another	-1309
▁brain	-1310
▁never	-1311
▁verw	-1312
▁Problem	-1313
ache	-1314
▁sondern	-1315
äh	-1316
utz	-1317
änder	-1318
▁found	-1319
amm	-1320
▁werde	-1321
▁cons	-1322
amen	-1323
▁Des	-1324
▁Ph	-1325
▁sl	-1326
anz	-1327
schein	-1328
arch	-1329
ährend	-1330
,"	-1331
...	-1332
▁Intern	-1333
▁Beispiel	-1334
▁Gehir	-1335
umber	-1336
ues	-1337
▁besch	-1338
▁Ü	-1339
▁tatsächlich	-1340
▁point	-1341
▁fin	-1342
nehmen	-1343
▁Aut	-1344
rat	-1345
▁unserer	-1346
iven	-1347
▁Geb	-1348
schieden	-1349
oy	-1350
fol	-1351
ander	-1352
▁Ihre	-1353
▁eigen	-1354
alth	-1355
▁ec	-1356
▁wahr	-1357
▁kid	-1358
▁Reg	-1359
br	-1360
enden	-1361
ata	-1362
▁leben	-1363
▁zie	-1364
ym	-1365
ürlich	-1366
▁weiß	-1367
▁6	-1368
▁New	-1369
ennen	-1370
uff	-1371
ward	-1372
allen	-1373
▁next	-1374
▁gab	-1375
▁neue	-1376
▁sort	-1377
ott	-1378
▁ago	-1379
▁exp	-1380
▁bede	-1381
▁mon	-1382
volution	-1383
ugen	-1384
gether	-1385
▁together	-1386
▁gel	-1387
▁dazu	-1388
▁water	-1389
bl	-1390
▁imag	-1391
▁vom	-1392
▁school	-1393
velop	-1394
land	-1395
ode	-1396
▁erst	-1397
▁How	-1398
kay	-1399
▁commun	-1400
▁mal	-1401
▁wäre	-1402
▁place	-1403
▁trans	-1404
ween	-1405
▁pat	-1406
▁Kon	-1407
▁glob	-1408
▁größ	-1409
ines	-1410
cted	-1411
▁few	-1412
stellen	-1413
▁came	-1414
cken	-1415
▁erzä	-1416
▁comple	-1417
ited	-1418
rank	-1419
schen	-1420
▁De	-1421
▁Lebens	-1422
eter	-1423
read	-1424
öglich	-1425
arm	-1426
▁entwick	-1427
▁Med	-1428
▁verl	-1429
▁gef	-1430
▁macht	-1431
▁finden	-1432
▁Million	-1433
achen	-1434
▁technology	-1435
▁gegen	-1436
▁sogar	-1437
▁number	-1438
▁br	-1439
▁denke	-1440
ets	-1441
▁Hand	-1442
▁denen	-1443
iness	-1444
gef	-1445
▁hät	-1446
▁denken	-1447
gs	-1448
öff	-1449
▁Wer	-1450
▁each	-1451
▁kommen	-1452
▁expl	-1453
▁plan	-1454
ized	-1455
ingen	-1456
▁organ	-1457
▁high	-1458
▁Ent	-1459
▁Mal	-1460
▁between	-1461
ident	-1462
▁wichtig	-1463
▁Technolog	-1464
▁used	-1465
▁develop	-1466
▁When	-1467
aufen	-1468
▁zwischen	-1469
oth	-1470
ters	-1471
ps	-1472
▁question	-1473
▁Gehirn	-1474
▁einmal	-1475
hrt	-1476
▁inst	-1477
co	-1478
▁Frauen	-1479
ative	-1480
▁art	-1481
afür	-1482
gest	-1483
zus	-1484
▁geb	-1485
cy	-1486
els	-1487
ierung	-1488
▁gerade	-1489
mit	-1490
atch	-1491
arbeit	-1492
▁gemacht	-1493
▁min	-1494
▁sen	-1495
▁Internet	-1496
ster	-1497
▁15	-1498
ific	-1499
▁cre	-1500
affen	-1501
▁ohne	-1502
▁weit	-1503
▁small	-1504
▁too	-1505
▁data	-1506
▁At	-1507
▁100	-1508
▁arbeit	-1509
▁funktion	-1510
ember	-1511
cause	-1512
ika	-1513
▁Frage	-1514
ule	-1515
▁geben	-1516
▁Wasser	-1517
▁30	-1518
▁Ihr	-1519
uge	-1520
▁vis	-1521
▁four	-1522
▁glaube	-1523
▁interess	-1524
▁kommt	-1525
▁Is	-1526
ways	-1527
▁par	-1528
uer	-1529
geben	-1530
▁50	-1531
▁women	-1532
▁Br	-1533
▁looking	-1534
▁Über	-1535
▁Ex	-1536
▁8	-1537
aterial	-1538
▁bere	-1539
▁ihren	-1540
▁run	-1541
▁näch	-1542
ced	-1543
▁grow	-1544
kommen	-1545
▁met	-1546
alen	-1547
ationen	-1548
▁example	-1549
▁old	-1550
schl	-1551
▁el	-1552
▁interest	-1553
▁zeigen	-1554
gew	-1555
▁ans	-1556
▁done	-1557
▁letzten	-1558
▁9	-1559
▁love	-1560
pe	-1561
▁cell	-1562
tschaft	-1563
▁wr	-1564
▁7	-1565
▁live	-1566
▁partic	-1567
▁Because	-1568
dem	-1569
anted	-1570
▁form	-1571
ably	-1572
▁erste	-1573
ium	-1574
▁dafür	-1575
▁Da	-1576
▁schne	-1577
▁War	-1578
▁bo	-1579
▁doesn	-1580
unkt	-1581
▁inv	-1582
▁light	-1583
zeit	-1584
▁nichts	-1585
immt	-1586
▁set	-1587
ält	-1588
▁Eine	-1589
▁würden	-1590
iolog	-1591
▁care	-1592
▁cent	-1593
gie	-1594
ures	-1595
▁irgend	-1596
▁ersten	-1597
tz	-1598
ffen	-1599
▁jeder	-1600
aub	-1601
ilm	-1602
▁verschieden	-1603
▁Schl	-1604
▁passiert	-1605
▁sieht	-1606
▁Univers	-1607
ös	-1608
ement	-1609
▁konnte	-1610
▁sk	-1611
▁eng	-1612
▁Q	-1613
▁second	-1614
ikan	-1615
ruck	-1616
▁As	-1617
▁sit	-1618
under	-1619
yn	-1620
ross	-1621
▁[	-1622
▁famil	-1623
▁wanted	-1624
led	-1625
▁polit	-1626
▁gener	-1627
▁verstehen	-1628
▁meisten	-1629
ness	-1630
▁während	-1631
▁reg	-1632
▁mag	-1633
▁Pr	-1634
▁lar	-1635
ied	-1636
▁Daten	-1637
here	-1638
▁poss	-1639
▁warum	-1640
cept	-1641
▁million	-1642
iele	-1643
▁Millionen	-1644
▁whole	-1645
unde	-1646
rop	-1647
▁daran	-1648
▁My	-1649
▁mensch	-1650
ernen	-1651
ands	-1652
▁mind	-1653
rupp	-1654
▁besser	-1655
▁dra	-1656
▁phys	-1657
▁Fe	-1658
achte	-1659
▁econom	-1660
▁working	-1661
▁str	-1662
▁reas	-1663
selves	-1664
▁Prozent	-1665
ider	-1666
▁chang	-1667
▁tre	-1668
▁less	-1669
ogen	-1670
▁Comp	-1671
▁trying	-1672
▁sub	-1673
fin	-1674
oney	-1675
ma	-1676
ideo	-1677
anke	-1678
▁anim	-1679
▁bus	-1680
aking	-1681
▁resp	-1682
▁lassen	-1683
sy	-1684
esehen	-1685
▁etwa	-1686
ift	-1687
weg	-1688
▁read	-1689
▁begin	-1690
▁always	-1691
▁health	-1692
▁away	-1693
▁sagt	-1694
▁norm	-1695
air	-1696
▁schl	-1697
tre	-1698
jekt	-1699
essen	-1700
▁dire	-1701
▁fast	-1702
illi	-1703
▁children	-1704
ude	-1705
gehen	-1706
wir	-1707
ischer	-1708
▁sollten	-1709
cher	-1710
▁Idee	-1711
zeug	-1712
▁Mar	-1713
▁prob	-1714
amp	-1715
▁sollte	-1716
▁believe	-1717
akt	-1718
▁acc	-1719
▁book	-1720
alls	-1721
ural	-1722
atter	-1723
▁country	-1724
amer	-1725
agt	-1726
äng	-1727
ivid	-1728
hip	-1729
dern	-1730
▁Person	-1731
▁Mon	-1732
▁natürlich	-1733
ilt	-1734
hlt	-1735
▁könnten	-1736
▁Geld	-1737
▁cor	-1738
ries	-1739
▁stand	-1740
row	-1741
▁ihrer	-1742
licher	-1743
app	-1744
ußer	-1745
ett	-1746
isen	-1747
▁meinen	-1748
▁schnell	-1749
▁US	-1750
▁dre	-1751
ollar	-1752
kte	-1753
▁Weg	-1754
lung	-1755
▁Raum	-1756
▁supp	-1757
▁using	-1758
str	-1759
▁frien	-1760
▁Ä	-1761
▁große	-1762
richt	-1763
▁aut	-1764
▁hard	-1765
ister	-1766
kun	-1767
err	-1768
▁meinem	-1769
tell	-1770
▁...	-1771
▁pict	-1772
▁ja	-1773
▁Am	-1774
▁space	-1775
schied	-1776
asch	-1777
vern	-1778
vers	-1779
▁dabei	-1780
▁wollte	-1781
hin	-1782
▁project	-1783
▁ganze	-1784
▁fre	-1785
arth	-1786
▁create	-1787
ci	-1788
adt	-1789
▁kids	-1790
▁abs	-1791
▁sicher	-1792
▁Verb	-1793
örper	-1794
▁sprechen	-1795
öglichkeit	-1796
raft	-1797
▁jemand	-1798
aces	-1799
▁means	-1800
uft	-1801
▁mod	-1802
ief	-1803
.000	-1804
▁cou	-1805
▁thinking	-1806
▁ziemlich	-1807
net	-1808
aben	-1809
▁tru	-1810
los	-1811
ric	-1812
▁fut	-1813
▁open	-1814
ierten	-1815
utet	-1816
▁five	-1817
▁sing	-1818
▁bekommen	-1819
▁mark	-1820
legen	-1821
▁under	-1822
gh	-1823
▁publ	-1824
▁took	-1825
▁information	-1826
▁Wissenschaft	-1827
urs	-1828
▁such	-1829
▁Schw	-1830
ession	-1831
▁darauf	-1832
▁home	-1833
▁Min	-1834
▁ging	-1835
▁eig	-1836
▁become	-1837
ories	-1838
▁energ	-1839
ünd	-1840
▁hör	-1841
eres	-1842
▁spec	-1843
▁'	-1844
▁teach	-1845
▁everything	-1846
▁♪	-1847
▁maybe	-1848
▁compan	-1849
ald	-1850
nov	-1851
▁kam	-1852
▁money	-1853
▁arbeiten	-1854
gesch	-1855
▁One	-1856
kunft	-1857
utter	-1858
▁Ener	-1859
ständ	-1860
▁Dank	-1861
scheinlich	-1862
reen	-1863
ringen	-1864
▁process	-1865
▁food	-1866
urz	-1867
▁doll	-1868
▁nehmen	-1869
sych	-1870
▁Gem	-1871
ird	-1872
man	-1873
▁cle	-1874
▁future	-1875
▁Ger	-1876
annt	-1877
▁She	-1878
sehen	-1879
".	-1880
ruct	-1881
▁Ende	-1882
▁left	-1883
dr	-1884
up	-1885
▁Ö	-1886
▁moment	-1887
reiben	-1888
▁nam	-1889
▁China	-1890
▁ass	-1891
▁hist	-1892
arly	-1893
▁coll	-1894
▁Entw	-1895
▁walk	-1896
ax	-1897
▁fas	-1898
▁doch	-1899
▁Mann	-1900
ktur	-1901
▁weniger	-1902
äter	-1903
line	-1904
ouse	-1905
icher	-1906
▁York	-1907
ohn	-1908
äs	-1909
▁Men	-1910
▁head	-1911
fühl	-1912
▁Inter	-1913
▁kleinen	-1914
vir	-1915
ilen	-1916
▁Design	-1917
abor	-1918
▁enough	-1919
rag	-1920
oot	-1921
▁Dann	-1922
▁These	-1923
▁Kom	-1924
▁getting	-1925
▁quite	-1926
▁social	-1927
▁Chr	-1928
ograph	-1929
▁Mein	-1930
duc	-1931
ennt	-1932
onder	-1933
▁comes	-1934
▁sense	-1935
▁energy	-1936
esell	-1937
▁global	-1938
▁says	-1939
▁interesting	-1940
orgen	-1941
cer	-1942
▁Pol	-1943
▁unseren	-1944
▁vier	-1945
▁Wor	-1946
esten	-1947
▁stop	-1948
▁govern	-1949
iere	-1950
▁prof	-1951
▁bre	-1952
▁Famil	-1953
aupt	-1954
usst	-1955
ustr	-1956
▁Technologie	-1957
▁bedeutet	-1958
ole	-1959
▁Denn	-1960
ließ	-1961
▁half	-1962
äus	-1963
▁El	-1964
▁Vers	-1965
▁bewe	-1966
nah	-1967
ments	-1968
▁Kre	-1969
ron	-1970
ulation	-1971
▁pop	-1972
▁typ	-1973
▁sign	-1974
▁probably	-1975
▁erw	-1976
▁contro	-1977
▁Information	-1978
cke	-1979
fte	-1980
ret	-1981
iet	-1982
▁Stud	-1983
▁beste	-1984
▁happened	-1985
▁times	-1986
cle	-1987
▁conne	-1988
ertain	-1989
▁Dollar	-1990
",	-1991
ican	-1992
▁making	-1993
▁welche	-1994
äft	-1995
▁ihm	-1996
ices	-1997
▁cr	-1998
hol	-1999
▁building	-2000
▁grou	-2001
▁ser	-2002
▁bringen	-2003
halt	-2004
▁Möglichkeit	-2005
▁heiß	-2006
▁Energie	-2007
▁talking	-2008
aps	-2009
▁seit	-2010
▁Eur	-2011
▁Sache	-2012
▁month	-2013
▁body	-2014
▁brauchen	-2015
inen	-2016
▁stuff	-2017
▁cur	-2018
▁möglich	-2019
ried	-2020
chite	-2021
▁Here	-2022
▁lives	-2023
▁dachte	-2024
hand	-2025
very	-2026
▁room	-2027
▁beaut	-2028
▁dist	-2029
▁Stra	-2030
▁without	-2031
eder	-2032
▁kleine	-2033
▁gesehen	-2034
achsen	-2035
▁ber	-2036
fort	-2037
▁Gro	-2038
▁Okay	-2039
iges	-2040
▁elect	-2041
▁eigentlich	-2042
▁Sh	-2043
▁far	-2044
▁makes	-2045
gle	-2046
rad	-2047
▁ungl	-2048
▁Proble	-2049
hle	-2050
ever	-2051
▁Män	-2052
esearch	-2053
ng	-2054
▁pie	-2055
▁18	-2056
▁seem	-2057
▁zeigt	-2058
▁großen	-2059
▁Ob	-2060
ismus	-2061
▁Pat	-2062
viron	-2063
etzen	-2064
ately	-2065
iment	-2066
▁countries	-2067
opf	-2068
▁voll	-2069
▁Zukunft	-2070
▁business	-2071
mp	-2072
▁keep	-2073
esent	-2074
▁„	-2075
aun	-2076
ying	-2077
▁Weise	-2078
▁else	-2079
undert	-2080
▁12	-2081
▁pra	-2082
arten	-2083
isk	-2084
▁pos	-2085
ument	-2086
▁fol	-2087
▁told	-2088
▁job	-2089
▁bad	-2090
▁pret	-2091
▁jeden	-2092
ether	-2093
▁side	-2094
▁Spiel	-2095
aden	-2096
▁Stadt	-2097
▁pretty	-2098
▁gar	-2099
▁Seite	-2100
▁coming	-2101
▁wonder	-2102
itive	-2103
▁Bü	-2104
▁wenig	-2105
▁reason	-2106
▁week	-2107
▁dollars	-2108
▁science	-2109
▁Computer	-2110
▁Gew	-2111
▁ret	-2112
▁simple	-2113
▁top	-2114
▁anything	-2115
▁Den	-2116
▁opp	-2117
▁across	-2118
▁schle	-2119
▁sound	-2120
▁40	-2121
▁allow	-2122
zial	-2123
▁Ged	-2124
▁Let	-2125
▁soc	-2126
▁ganzen	-2127
schaften	-2128
fer	-2129
▁environ	-2130
▁Africa	-2131
▁Frau	-2132
quen	-2133
▁int	-2134
uring	-2135
ckt	-2136
emat	-2137
▁men	-2138
▁Ele	-2139
eth	-2140
rib	-2141
▁No	-2142
▁außer	-2143
nf	-2144
▁phot	-2145
ker	-2146
▁On	-2147
ches	-2148
rom	-2149
ende	-2150
▁keinen	-2151
ernt	-2152
▁living	-2153
mun	-2154
NA	-2155
▁Engl	-2156
▁Entwick	-2157
irl	-2158
ality	-2159
ulture	-2160
▁educ	-2161
leben	-2162
otion	-2163
▁hoch	-2164
▁Körper	-2165
vie	-2166
ince	-2167
▁eas	-2168
ator	-2169
▁cap	-2170
undheit	-2171
Ich	-2172
erne	-2173
▁Rob	-2174
gal	-2175
▁val	-2176
▁gest	-2177
rieben	-2178
▁ey	-2179
ders	-2180
▁hope	-2181
▁seen	-2182
▁ways	-2183
▁Grupp	-2184
▁je	-2185
▁Menge	-2186
▁experience	-2187
ots	-2188
▁OK	-2189
utes	-2190
▁Woch	-2191
▁rest	-2192
▁ä	-2193
ged	-2194
▁air	-2195
▁Buch	-2196
▁gesagt	-2197
▁scient	-2198
ape	-2199
▁versuchen	-2200
haf	-2201
▁rob	-2202
ision	-2203
sicht	-2204
▁Warum	-2205
▁Natur	-2206
▁absol	-2207
most	-2208
▁later	-2209
▁später	-2210
▁Ort	-2211
▁hätte	-2212
ash	-2213
erence	-2214
▁glauben	-2215
▁saw	-2216
▁Fall	-2217
▁program	-2218
▁fig	-2219
stellung	-2220
▁research	-2221
where	-2222
▁unglaub	-2223
▁col	-2224
athemat	-2225
ily	-2226
work	-2227
▁lernen	-2228
▁beim	-2229
scheid	-2230
▁asked	-2231
▁vielen	-2232
▁goes	-2233
▁hour	-2234
▁indem	-2235
▁System	-2236
mittel	-2237
▁niem	-2238
iverse	-2239
▁seiner	-2240
▁happens	-2241
stoff	-2242
iker	-2243
▁Augen	-2244
▁offen	-2245
ähigkeit	-2246
▁particular	-2247
▁Do	-2248
apt	-2249
▁Haus	-2250
▁char	-2251
öl	-2252
iety	-2253
▁move	-2254
▁computer	-2255
▁Antw	-2256
schw	-2257
▁pers	-2258
achten	-2259
ote	-2260
▁fest	-2261
▁case	-2262
▁eigenen	-2263
▁Groß	-2264
▁having	-2265
▁effect	-2266
einander	-2267
▁answer	-2268
▁Ber	-2269
▁fal	-2270
▁oft	-2271
▁fünf	-2272
▁Licht	-2273
ization	-2274
akes	-2275
ament	-2276
onnen	-2277
ipp	-2278
▁vir	-2279
▁planet	-2280
▁individ	-2281
▁problems	-2282
folg	-2283
ants	-2284
▁family	-2285
▁Vielen	-2286
▁stellen	-2287
▁öff	-2288
racht	-2289
itz	-2290
▁nä	-2291
▁Spra	-2292
▁picture	-2293
tellt	-2294
ume	-2295
ared	-2296
▁Dar	-2297
illiar	-2298
▁Danke	-2299
▁thous	-2300
▁complete	-2301
▁funktioniert	-2302
▁schaffen	-2303
▁music	-2304
uck	-2305
arte	-2306
▁stre	-2307
▁konnten	-2308
▁Lie	-2309
ritt	-2310
▁Why	-2311
▁city	-2312
▁gehör	-2313
ilder	-2314
▁days	-2315
▁langu	-2316
nung	-2317
oman	-2318
▁bro	-2319
▁heißt	-2320
hrer	-2321
▁six	-2322
▁Earth	-2323
▁unt	-2324
unter	-2325
▁besond	-2326
▁25	-2327
ior	-2328
▁mil	-2329
▁land	-2330
zeich	-2331
cl	-2332
reichen	-2333
▁environment	-2334
rü	-2335
▁jedes	-2336
iol	-2337
stand	-2338
▁Sel	-2339
▁equ	-2340
ändert	-2341
▁single	-2342
▁loc	-2343
▁level	-2344
esellschaft	-2345
▁Zwe	-2346
▁komple	-2347
asse	-2348
▁ev	-2349
▁Erde	-2350
▁Probleme	-2351
unst	-2352
▁Moment	-2353
▁inside	-2354
▁irgendw	-2355
▁nutzen	-2356
tem	-2357
▁began	-2358
▁Produ	-2359
▁Organ	-2360
▁remember	-2361
ünst	-2362
▁ble	-2363
▁helfen	-2364
▁Gesundheit	-2365
▁gute	-2366
▁Jetzt	-2367
▁young	-2368
erein	-2369
let	-2370
▁yet	-2371
▁bew	-2372
▁dig	-2373
▁Milliar	-2374
iti	-2375
▁public	-2376
ktiv	-2377
unk	-2378
▁extre	-2379
▁invest	-2380
ready	-2381
▁Wahr	-2382
fahren	-2383
▁while	-2384
isches	-2385
zuf	-2386
▁neuen	-2387
▁prote	-2388
▁watch	-2389
▁biolog	-2390
▁possible	-2391
▁Mutter	-2392
ury	-2393
▁amaz	-2394
bo	-2395
zahl	-2396
▁pain	-2397
ruktur	-2398
▁almost	-2399
ided	-2400
▁normal	-2401
▁USA	-2402
uche	-2403
▁once	-2404
▁che	-2405
▁hear	-2406
▁ideas	-2407
▁basically	-2408
abe	-2409
ield	-2410
▁disco	-2411
▁Kont	-2412
▁fund	-2413
▁certain	-2414
▁both	-2415
dition	-2416
umen	-2417
heiten	-2418
▁bed	-2419
▁aller	-2420
▁suc	-2421
▁dise	-2422
▁saying	-2423
▁net	-2424
▁sure	-2425
▁—	-2426
ahlen	-2427
▁Kunst	-2428
▁Form	-2429
gefähr	-2430
▁self	-2431
▁wrong	-2432
▁verk	-2433
▁betra	-2434
chs	-2435
▁wahrscheinlich	-2436
▁whether	-2437
idd	-2438
rum	-2439
oice	-2440
▁contin	-2441
▁allen	-2442
▁treat	-2443
▁Bo	-2444
▁guy	-2445
so	-2446
auer	-2447
▁sah	-2448
▁DNA	-2449
denken	-2450
▁billion	-2451
▁insp	-2452
▁looks	-2453
▁nothing	-2454
imate	-2455
osten	-2456
▁anders	-2457
ush	-2458
▁Not	-2459
▁matter	-2460
▁Wo	-2461
ption	-2462
▁history	-2463
▁tot	-2464
glichen	-2465
▁incred	-2466
welt	-2467
▁already	-2468
▁unserem	-2469
▁frü	-2470
ages	-2471
iful	-2472
uation	-2473
lichkeit	-2474
ogn	-2475
ived	-2476
▁exist	-2477
▁schön	-2478
▁community	-2479
▁control	-2480
▁someone	-2481
ases	-2482
▁Tod	-2483
▁often	-2484
▁product	-2485
▁Uns	-2486
aneten	-2487
▁exact	-2488
▁heart	-2489
öt	-2490
▁Bed	-2491
chmal	-2492
▁Schul	-2493
inter	-2494
▁within	-2495
inz	-2496
icro	-2497
▁genug	-2498
▁erzählen	-2499
▁nächsten	-2500
aur	-2501
▁lange	-2502
▁looked	-2503
gem	-2504
side	-2505
▁line	-2506
stead	-2507
▁Gegen	-2508
▁erkl	-2509
ransp	-2510
▁true	-2511
▁herum	-2512
▁weg	-2513
▁frag	-2514
▁kennen	-2515
▁amazing	-2516
▁dev	-2517
▁challen	-2518
ären	-2519
gleich	-2520
▁seinen	-2521
osed	-2522
▁universe	-2523
▁cost	-2524
▁mass	-2525
oral	-2526
▁extra	-2527
ösen	-2528
▁cells	-2529
▁To	-2530
▁erf	-2531
▁iss	-2532
▁begann	-2533
que	-2534
▁kill	-2535
liches	-2536
aby	-2537
▁ur	-2538
ultur	-2539
▁works	-2540
▁gemein	-2541
▁Fot	-2542
▁term	-2543
▁words	-2544
▁Forsch	-2545
▁test	-2546
▁erinn	-2547
▁bauen	-2548
▁myself	-2549
▁CA	-2550
▁di	-2551
ivity	-2552
▁cond	-2553
▁Ideen	-2554
▁Musik	-2555
▁mar	-2556
forder	-2557
▁rep	-2558
▁heard	-2559
▁recht	-2560
ones	-2561
zieh	-2562
▁ref	-2563
▁ill	-2564
▁girl	-2565
▁kne	-2566
gangen	-2567
▁Ja	-2568
▁psych	-2569
▁Selbst	-2570
▁Planeten	-2571
innen	-2572
▁class	-2573
ollow	-2574
▁built	-2575
▁richtig	-2576
▁wus	-2577
▁jede	-2578
▁order	-2579
▁imagine	-2580
less	-2581
ination	-2582
▁result	-2583
ton	-2584
chan	-2585
kennen	-2586
aren	-2587
▁Bere	-2588
▁figure	-2589
▁beautiful	-2590
▁ü	-2591
▁Projekt	-2592
äre	-2593
▁cancer	-2594
▁Ma	-2595
fect	-2596
▁Sta	-2597
▁United	-2598
▁aff	-2599
uchte	-2600
ums	-2601
ians	-2602
iddle	-2603
▁bevor	-2604
▁train	-2605
▁ungefähr	-2606
▁Nicht	-2607
fä	-2608
▁rad	-2609
▁sex	-2610
▁wicht	-2611
nisse	-2612
vious	-2613
▁friends	-2614
▁Geschichten	-2615
▁night	-2616
▁age	-2617
▁couple	-2618
Wh	-2619
mut	-2620
aper	-2621
▁Schule	-2622
▁hund	-2623
▁behav	-2624
▁liegt	-2625
▁language	-2626
▁Fähigkeit	-2627
The	-2628
▁exc	-2629
▁eing	-2630
▁nah	-2631
▁full	-2632
▁verändern	-2633
▁Dem	-2634
▁stories	-2635
hm	-2636
ired	-2637
iting	-2638
▁ihrem	-2639
▁ta	-2640
ße	-2641
▁hö	-2642
▁video	-2643
ücken	-2644
▁months	-2645
▁mother	-2646
▁erl	-2647
▁face	-2648
▁entire	-2649
mö	-2650
ftw	-2651
▁Du	-2652
▁verd	-2653
eah	-2654
voll	-2655
▁Erfahr	-2656
▁bisschen	-2657
▁Informationen	-2658
ivil	-2659
▁kurz	-2660
▁Für	-2661
▁ant	-2662
anken	-2663
fra	-2664
äche	-2665
▁pay	-2666
▁sei	-2667
▁government	-2668
▁link	-2669
izin	-2670
nitt	-2671
ission	-2672
ädchen	-2673
▁Leuten	-2674
▁material	-2675
outh	-2676
▁Exper	-2677
▁überall	-2678
▁group	-2679
antw	-2680
stit	-2681
▁must	-2682
▁front	-2683
▁incre	-2684
cc	-2685
▁sw	-2686
utzt	-2687
▁neur	-2688
llig	-2689
▁ident	-2690
▁Wirtschaft	-2691
une	-2692
▁Ang	-2693
▁Krie	-2694
▁hoff	-2695
▁Arten	-2696
▁innov	-2697
▁follow	-2698
▁species	-2699
▁Unternehmen	-2700
▁Pe	-2701
ieht	-2702
▁Gra	-2703
heim	-2704
▁Par	-2705
▁Krank	-2706
▁Punkt	-2707
▁defin	-2708
▁Fragen	-2709
▁stehen	-2710
▁60	-2711
▁isn	-2712
ienten	-2713
▁piece	-2714
▁schwer	-2715
▁seinem	-2716
▁alt	-2717
ering	-2718
▁inner	-2719
▁los	-2720
▁education	-2721
▁nature	-2722
ilfe	-2723
▁oce	-2724
immen	-2725
▁model	-2726
▁market	-2727
▁until	-2728
▁hinter	-2729
satz	-2730
▁places	-2731
rug	-2732
zess	-2733
▁Bet	-2734
▁dich	-2735
▁Antwort	-2736
▁Männer	-2737
wend	-2738
anzen	-2739
▁sagten	-2740
▁gehört	-2741
kten	-2742
imens	-2743
▁Kopf	-2744
▁darum	-2745
omet	-2746
raum	-2747
▁mess	-2748
▁terr	-2749
▁Can	-2750
▁schwier	-2751
▁Film	-2752
ielt	-2753
▁wasn	-2754
▁Milliarden	-2755
▁klar	-2756
▁everybody	-2757
ateg	-2758
▁chem	-2759
▁quick	-2760
▁erh	-2761
asst	-2762
gende	-2763
▁Di	-2764
▁199	-2765
inner	-2766
▁ment	-2767
▁tool	-2768
ußen	-2769
▁dest	-2770
omes	-2771
plic	-2772
▁Gebä	-2773
▁Glück	-2774
lt	-2775
reif	-2776
▁completely	-2777
ctor	-2778
rieb	-2779
▁det	-2780
▁writ	-2781
▁nennen	-2782
▁anf	-2783
▁eben	-2784
▁study	-2785
▁Goo	-2786
▁musste	-2787
▁object	-2788
▁Mädchen	-2789
▁decided	-2790
ames	-2791
▁Vie	-2792
ested	-2793
▁large	-2794
ides	-2795
ienen	-2796
▁Vort	-2797
▁reden	-2798
▁Lös	-2799
▁taking	-2800
▁animals	-2801
▁entwickelt	-2802
▁prov	-2803
▁Jahrh	-2804
beite	-2805
▁Meine	-2806
▁großart	-2807
▁Qu	-2808
▁intern	-2809
ortun	-2810
▁spend	-2811
▁became	-2812
alten	-2813
▁engine	-2814
ging	-2815
▁Every	-2816
▁students	-2817
▁exactly	-2818
▁Bes	-2819
▁80	-2820
istan	-2821
▁India	-2822
▁anderes	-2823
▁bereits	-2824
osph	-2825
▁adv	-2826
▁Afrika	-2827
▁Dieses	-2828
▁schein	-2829
ibly	-2830
▁share	-2831
ene	-2832
face	-2833
▁law	-2834
▁view	-2835
▁States	-2836
▁itself	-2837
wohl	-2838
▁discover	-2839
inal	-2840
onne	-2841
acter	-2842
▁repr	-2843
ively	-2844
▁wunder	-2845
▁sow	-2846
▁Mode	-2847
▁Zusammen	-2848
bra	-2849
▁Ha	-2850
▁spielen	-2851
erk	-2852
bare	-2853
▁past	-2854
▁word	-2855
▁entde	-2856
▁though	-2857
▁son	-2858
ftware	-2859
bed	-2860
werk	-2861
▁Bei	-2862
▁Netz	-2863
zept	-2864
▁euch	-2865
▁Minuten	-2866
▁complex	-2867
▁learned	-2868
▁Entscheid	-2869
▁Gesellschaft	-2870
▁Gener	-2871
▁success	-2872
▁happening	-2873
ütz	-2874
▁kinds	-2875
▁erkennen	-2876
▁Verhalten	-2877
iber	-2878
▁Spe	-2879
▁priv	-2880
ability	-2881
▁ourselves	-2882
par	-2883
▁America	-2884
▁tro	-2885
igten	-2886
ource	-2887
▁cool	-2888
▁society	-2889
▁mem	-2890
igung	-2891
▁knew	-2892
▁sens	-2893
▁besonders	-2894
▁minutes	-2895
▁woman	-2896
▁halten	-2897
▁deal	-2898
▁since	-2899
▁erreichen	-2900
▁questions	-2901
▁Gott	-2902
indung	-2903
inning	-2904
▁fragen	-2905
▁struct	-2906
▁game	-2907
▁steht	-2908
▁techn	-2909
ral	-2910
oter	-2911
ature	-2912
▁conf	-2913
reis	-2914
▁Kön	-2915
▁against	-2916
▁company	-2917
▁themselves	-2918
ising	-2919
▁house	-2920
▁Familie	-2921
med	-2922
▁somebody	-2923
▁relations	-2924
▁Sc	-2925
icken	-2926
äuf	-2927
▁av	-2928
▁oben	-2929
▁namens	-2930
fang	-2931
ocus	-2932
immer	-2933
▁Indien	-2934
▁benutzen	-2935
▁gets	-2936
ager	-2937
▁dir	-2938
▁won	-2939
▁John	-2940
▁wind	-2941
▁free	-2942
richten	-2943
sh	-2944
▁Ur	-2945
uden	-2946
▁God	-2947
▁sym	-2948
▁stat	-2949
▁verschiedene	-2950
ichen	-2951
ahn	-2952
gung	-2953
haps	-2954
▁del	-2955
▁Macht	-2956
▁along	-2957
▁Bilder	-2958
endet	-2959
▁colle	-2960
▁turns	-2961
▁Google	-2962
▁meet	-2963
▁hätten	-2964
▁rather	-2965
bild	-2966
unge	-2967
▁gerne	-2968
▁hören	-2969
iste	-2970
▁ones	-2971
uchten	-2972
grund	-2973
ommt	-2974
▁Fol	-2975
press	-2976
▁Flug	-2977
▁aw	-2978
▁created	-2979
▁tradition	-2980
▁fly	-2981
▁red	-2982
▁Them	-2983
▁huge	-2984
▁darin	-2985
▁na	-2986
▁Ergeb	-2987
cing	-2988
stra	-2989
▁cir	-2990
▁Oder	-2991
reit	-2992
änger	-2993
▁hours	-2994
▁opportun	-2995
zug	-2996
▁ho	-2997
roll	-2998
▁var	-2999
▁lead	-3000
▁machte	-3001
▁Ke	-3002
▁cra	-3003
icult	-3004
▁name	-3005
▁aud	-3006
met	-3007
ächt	-3008
▁mov	-3009
▁Auto	-3010
▁Herz	-3011
ef	-3012
andel	-3013
▁Wort	-3014
liegen	-3015
▁statt	-3016
▁extrem	-3017
iken	-3018
▁att	-3019
▁opt	-3020
▁pred	-3021
▁risk	-3022
▁focus	-3023
▁Kor	-3024
▁arbeite	-3025
▁Fü	-3026
▁Bro	-3027
▁ähn	-3028
▁bott	-3029
▁deep	-3030
▁oper	-3031
itting	-3032
▁Beweg	-3033
ished	-3034
▁Gruppe	-3035
ples	-3036
wards	-3037
▁Doch	-3038
▁shows	-3039
▁Ro	-3040
gramm	-3041
50	-3042
▁Char	-3043
▁Then	-3044
ams	-3045
▁arg	-3046
▁mot	-3047
lo	-3048
▁Tr	-3049
erer	-3050
weit	-3051
annte	-3052
▁least	-3053
▁braucht	-3054
▁disease	-3055
bes	-3056
ekte	-3057
▁add	-3058
haupt	-3059
▁meas	-3060
öhn	-3061
ress	-3062
▁jedem	-3063
▁wohl	-3064
▁Em	-3065
▁welt	-3066
▁others	-3067
ump	-3068
▁Sü	-3069
▁Durch	-3070
ließlich	-3071
▁Eltern	-3072
▁Sprache	-3073
▁news	-3074
tellen	-3075
▁Gefühl	-3076
▁Angst	-3077
▁sometimes	-3078
▁eins	-3079
▁lea	-3080
istic	-3081
ützen	-3082
▁liter	-3083
▁couldn	-3084
▁American	-3085
▁ries	-3086
▁difficult	-3087
▁Kn	-3088
part	-3089
orden	-3090
▁guys	-3091
▁worked	-3092
sent	-3093
▁Far	-3094
▁anal	-3095
▁Ad	-3096
▁Cl	-3097
▁early	-3098
▁sechs	-3099
▁state	-3100
▁Kultur	-3101
▁Patienten	-3102
▁Some	-3103
▁Gemein	-3104
▁thousands	-3105
▁Vielleicht	-3106
sk	-3107
▁11	-3108
▁lau	-3109
▁non	-3110
▁film	-3111
▁Richt	-3112
▁happy	-3113
ey	-3114
view	-3115
▁entf	-3116
▁invol	-3117
osp	-3118
esse	-3119
fall	-3120
ients	-3121
▁glück	-3122
▁speak	-3123
illions	-3124
▁behind	-3125
▁listen	-3126
onen	-3127
▁Lin	-3128
▁neu	-3129
▁Jahrhundert	-3130
ined	-3131
▁Dav	-3132
▁Weil	-3133
▁gesam	-3134
▁micro	-3135
gestellt	-3136
hler	-3137
ässt	-3138
▁Fir	-3139
führt	-3140
▁systems	-3141
ai	-3142
▁gave	-3143
▁redu	-3144
icherheit	-3145
imp	-3146
▁201	-3147
ither	-3148
▁Freund	-3149
▁everyone	-3150
aster	-3151
inger	-3152
▁führen	-3153
▁explain	-3154
▁instead	-3155
pend	-3156
▁entwickeln	-3157
ison	-3158
▁ange	-3159
▁poor	-3160
tend	-3161
▁appro	-3162
▁bewegen	-3163
ney	-3164
punkt	-3165
zeugen	-3166
ask	-3167
▁Ko	-3168
ätz	-3169
indet	-3170
▁behavior	-3171
cul	-3172
▁lik	-3173
anten	-3174
▁natural	-3175
▁vorstellen	-3176
▁sug	-3177
▁third	-3178
▁network	-3179
▁erhalten	-3180
▁Städ	-3181
ling	-3182
ning	-3183
▁amount	-3184
▁einigen	-3185
▁arm	-3186
▁field	-3187
▁richt	-3188
▁Veränder	-3189
▁impro	-3190
▁intell	-3191
▁lots	-3192
▁Stunden	-3193
▁learning	-3194
▁Vater	-3195
▁relationship	-3196
ante	-3197
▁einge	-3198
▁relig	-3199
▁online	-3200
▁collect	-3201
▁erk	-3202
akter	-3203
▁Luft	-3204
schnitt	-3205
▁beiden	-3206
▁manchmal	-3207
▁verschiedenen	-3208
tens	-3209
amera	-3210
utions	-3211
▁Car	-3212
▁mult	-3213
antast	-3214
▁recent	-3215
▁wa	-3216
ikro	-3217
▁Har	-3218
itions	-3219
▁death	-3220
uz	-3221
▁16	-3222
▁HI	-3223
▁Oh	-3224
igte	-3225
▁Chris	-3226
äten	-3227
alität	-3228
▁interact	-3229
▁irgendwie	-3230
iben	-3231
▁Techn	-3232
▁disc	-3233
▁%	-3234
ölker	-3235
▁Krebs	-3236
hnt	-3237
hlte	-3238
uren	-3239
ublik	-3240
▁genet	-3241
▁surpr	-3242
▁menschlichen	-3243
St	-3244
rew	-3245
▁oil	-3246
of	-3247
▁bemer	-3248
▁ändern	-3249
▁connect	-3250
apan	-3251
ionen	-3252
▁short	-3253
▁Roboter	-3254
lex	-3255
▁machine	-3256
▁Fran	-3257
▁takes	-3258
▁stell	-3259
▁super	-3260
▁Bezieh	-3261
▁outside	-3262
▁black	-3263
▁taken	-3264
▁moving	-3265
▁difference	-3266
sw	-3267
▁inte	-3268
▁seven	-3269
▁bestimm	-3270
okrat	-3271
▁Video	-3272
▁wollten	-3273
▁personal	-3274
!"	-3275
ence	-3276
▁HIV	-3277
▁auss	-3278
▁changed	-3279
▁cut	-3280
▁incl	-3281
▁pick	-3282
▁Masch	-3283
▁close	-3284
ony	-3285
haus	-3286
ully	-3287
▁Sinn	-3288
▁common	-3289
▁einzel	-3290
▁record	-3291
▁powerful	-3292
uelle	-3293
▁vorher	-3294
oph	-3295
häng	-3296
▁leg	-3297
▁jour	-3298
▁14	-3299
▁einzige	-3300
▁Regierung	-3301
pect	-3302
▁nämlich	-3303
rif	-3304
ased	-3305
▁green	-3306
▁besten	-3307
tt	-3308
min	-3309
▁pattern	-3310
▁Hause	-3311
tention	-3312
▁Kindern	-3313
ana	-3314
orth	-3315
▁Europe	-3316
▁verwenden	-3317
ards	-3318
▁Werk	-3319
▁archite	-3320
▁century	-3321
▁Material	-3322
▁verändert	-3323
▁unterschied	-3324
▁Pa	-3325
alax	-3326
gang	-3327
ände	-3328
ester	-3329
▁area	-3330
▁Heraus	-3331
▁emotion	-3332
bere	-3333
aktion	-3334
▁ocean	-3335
▁Sachen	-3336
▁transp	-3337
▁Fahr	-3338
opp	-3339
▁Hö	-3340
auben	-3341
▁eher	-3342
▁experiment	-3343
▁Mo	-3344
zustellen	-3345
uh	-3346
▁cann	-3347
▁indust	-3348
▁middle	-3349
Oh	-3350
▁lim	-3351
▁fand	-3352
erweise	-3353
▁culture	-3354
▁unglaublich	-3355
oms	-3356
▁comput	-3357
▁Organis	-3358
▁Aufg	-3359
▁easy	-3360
▁Sk	-3361
unch	-3362
▁cities	-3363
▁eyes	-3364
spr	-3365
▁perhaps	-3366
▁90	-3367
▁dan	-3368
ummer	-3369
▁innerhalb	-3370
▁hol	-3371
▁sage	-3372
▁given	-3373
▁Gebäude	-3374
anger	-3375
▁needs	-3376
▁yourself	-3377
jor	-3378
▁Ziel	-3379
▁leave	-3380
scheiden	-3381
▁beginnen	-3382
ehen	-3383
▁serv	-3384
▁hands	-3385
▁turned	-3386
agn	-3387
▁ern	-3388
▁event	-3389
▁Je	-3390
▁simp	-3391
ließen	-3392
▁Part	-3393
▁pract	-3394
oud	-3395
▁tem	-3396
zieren	-3397
▁team	-3398
genommen	-3399
▁World	-3400
▁eight	-3401
▁digital	-3402
▁population	-3403
▁17	-3404
ufen	-3405
▁paper	-3406
▁Dieser	-3407
▁Länder	-3408
▁perform	-3409
▁low	-3410
verage	-3411
▁getan	-3412
▁wegen	-3413
uld	-3414
▁const	-3415
▁Gleich	-3416
rab	-3417
▁fort	-3418
▁überhaupt	-3419
ails	-3420
▁Res	-3421
▁local	-3422
▁Entwicklung	-3423
year	-3424
▁Mil	-3425
▁hold	-3426
▁Su	-3427
iale	-3428
▁communic	-3429
berfl	-3430
▁terms	-3431
▁Umwelt	-3432
▁sozial	-3433
cin	-3434
hor	-3435
▁saf	-3436
▁Chin	-3437
völker	-3438
▁Stück	-3439
▁absolute	-3440
▁fish	-3441
▁beginning	-3442
urt	-3443
orie	-3444
zy	-3445
▁tut	-3446
▁inspir	-3447
▁wonderful	-3448
inder	-3449
▁beob	-3450
▁moral	-3451
▁parts	-3452
pression	-3453
▁Kle	-3454
▁zwar	-3455
▁Vortrag	-3456
▁Sit	-3457
▁zer	-3458
idence	-3459
system	-3460
▁stellt	-3461
▁finally	-3462
▁Herausforder	-3463
haft	-3464
▁potent	-3465
▁obvious	-3466
▁gleichen	-3467
▁mathemat	-3468
▁Universum	-3469
book	-3470
▁occ	-3471
▁fantast	-3472
yl	-3473
▁Just	-3474
▁miss	-3475
▁friend	-3476
▁seeing	-3477
▁versucht	-3478
▁evolution	-3479
aug	-3480
▁inde	-3481
▁stra	-3482
isieren	-3483
▁access	-3484
▁interessant	-3485
▁Anfang	-3486
▁Stellen	-3487
bte	-3488
lev	-3489
text	-3490
▁Ant	-3491
▁tief	-3492
▁father	-3493
mm	-3494
▁robot	-3495
aring	-3496
▁Fort	-3497
▁Lage	-3498
▁ansch	-3499
ama	-3500
pid	-3501
▁Tier	-3502
▁Publik	-3503
by	-3504
ängt	-3505
ially	-3506
▁prop	-3507
▁image	-3508
▁simply	-3509
▁reach	-3510
▁cannot	-3511
▁during	-3512
▁schauen	-3513
▁fundament	-3514
bor	-3515
▁Ben	-3516
▁ster	-3517
▁allem	-3518
▁companies	-3519
avor	-3520
baren	-3521
▁blue	-3522
▁spra	-3523
▁treffen	-3524
oun	-3525
achst	-3526
▁Klim	-3527
▁Rest	-3528
▁David	-3529
ove	-3530
▁Nat	-3531
▁architect	-3532
iot	-3533
elten	-3534
inary	-3535
orten	-3536
▁major	-3537
▁economic	-3538
▁realized	-3539
ales	-3540
alif	-3541
▁May	-3542
▁grand	-3543
wand	-3544
▁obs	-3545
▁mole	-3546
▁viol	-3547
▁expect	-3548
zub	-3549
▁ang	-3550
▁cal	-3551
chter	-3552
iziert	-3553
▁Lehrer	-3554
▁Wochen	-3555
▁erstaun	-3556
umm	-3557
wär	-3558
ills	-3559
▁bir	-3560
nahme	-3561
▁Tiere	-3562
▁Prä	-3563
▁media	-3564
▁longer	-3565
▁perfect	-3566
▁Erfahrung	-3567
bert	-3568
▁Zug	-3569
▁unters	-3570
reg	-3571
hood	-3572
▁Neur	-3573
▁thank	-3574
▁verste	-3575
▁nächste	-3576
lam	-3577
▁Zum	-3578
zin	-3579
fully	-3580
▁stay	-3581
rieden	-3582
▁Mittel	-3583
▁bereit	-3584
ilos	-3585
▁sun	-3586
ahren	-3587
▁size	-3588
▁surv	-3589
ziehen	-3590
vention	-3591
▁niemand	-3592
▁weitere	-3593
kü	-3594
ources	-3595
▁scale	-3596
▁fühlen	-3597
▁humans	-3598
fgh	-3599
enne	-3600
omat	-3601
▁Web	-3602
▁needed	-3603
schaffen	-3604
ledge	-3605
▁Essen	-3606
▁special	-3607
▁orig	-3608
▁Polit	-3609
▁Kap	-3610
▁enc	-3611
▁fore	-3612
▁Japan	-3613
▁present	-3614
▁reality	-3615
▁menschliche	-3616
hnen	-3617
▁ple	-3618
▁Prozess	-3619
▁Tages	-3620
▁People	-3621
▁parents	-3622
▁whatever	-3623
▁Sicherheit	-3624
bel	-3625
nal	-3626
▁Job	-3627
▁Pap	-3628
▁Vir	-3629
acy	-3630
ele	-3631
▁vö	-3632
▁meines	-3633
▁mussten	-3634
icks	-3635
▁fac	-3636
▁deren	-3637
▁Typ	-3638
▁bel	-3639
▁conc	-3640
▁Hilfe	-3641
▁lässt	-3642
antwort	-3643
ranken	-3644
▁Dingen	-3645
Well	-3646
isse	-3647
▁Rei	-3648
▁verst	-3649
▁198	-3650
ritte	-3651
▁ground	-3652
auso	-3653
oten	-3654
lungs	-3655
▁tried	-3656
▁Geschäft	-3657
sein	-3658
▁Kar	-3659
▁feed	-3660
▁kamen	-3661
ingt	-3662
fghan	-3663
annten	-3664
cially	-3665
▁enorm	-3666
▁growth	-3667
▁Archite	-3668
▁21	-3669
iction	-3670
▁wusste	-3671
son	-3672
ünde	-3673
▁felt	-3674
▁democ	-3675
▁Freunde	-3676
▁quickly	-3677
▁hy	-3678
ibility	-3679
▁eigene	-3680
rück	-3681
ograf	-3682
ächst	-3683
▁press	-3684
▁Denken	-3685
ötz	-3686
▁13	-3687
ised	-3688
▁key	-3689
itter	-3690
▁dark	-3691
▁Verein	-3692
▁strong	-3693
▁approach	-3694
ban	-3695
▁recogn	-3696
▁interested	-3697
▁bringt	-3698
uell	-3699
statt	-3700
▁ability	-3701
▁70	-3702
orge	-3703
▁buy	-3704
▁hab	-3705
▁falsch	-3706
▁schlecht	-3707
cious	-3708
▁Mich	-3709
▁erre	-3710
▁Grunde	-3711
▁value	-3712
▁jedoch	-3713
▁bi	-3714
▁okay	-3715
▁pres	-3716
▁spent	-3717
▁Publikum	-3718
ites	-3719
zentr	-3720
▁Haupt	-3721
▁unten	-3722
▁support	-3723
▁Möglichkeiten	-3724
ürger	-3725
▁persön	-3726
▁political	-3727
por	-3728
▁jo	-3729
ains	-3730
tete	-3731
▁Oze	-3732
izing	-3733
▁gone	-3734
▁solche	-3735
usion	-3736
▁Tage	-3737
izieren	-3738
▁Struktur	-3739
isiert	-3740
▁break	-3741
merikan	-3742
▁Gedanken	-3743
imme	-3744
▁Met	-3745
udden	-3746
▁requ	-3747
zellen	-3748
▁Markt	-3749
▁grund	-3750
▁leaders	-3751
iny	-3752
▁lost	-3753
▁animal	-3754
▁App	-3755
▁lab	-3756
ras	-3757
äss	-3758
▁verschw	-3759
hält	-3760
inde	-3761
▁send	-3762
▁essen	-3763
▁worden	-3764
▁Öl	-3765
falls	-3766
uellen	-3767
ücke	-3768
▁Mars	-3769
▁lösen	-3770
▁fu	-3771
▁Gren	-3772
▁Meth	-3773
▁circ	-3774
▁feet	-3775
▁kont	-3776
▁führt	-3777
▁völlig	-3778
▁virt	-3779
▁schreiben	-3780
▁Unterschied	-3781
▁Sek	-3782
▁dau	-3783
nahmen	-3784
▁Boden	-3785
▁stark	-3786
▁wären	-3787
▁opportunity	-3788
ball	-3789
elte	-3790
ouch	-3791
gress	-3792
rogen	-3793
▁Elekt	-3794
▁Nacht	-3795
▁known	-3796
▁direkt	-3797
▁letzte	-3798
▁economy	-3799
▁berü	-3800
▁Bar	-3801
▁ged	-3802
▁phone	-3803
▁weeks	-3804
▁damals	-3805
▁dessen	-3806
res	-3807
▁Tre	-3808
ysteme	-3809
mus	-3810
uth	-3811
spro	-3812
▁Bew	-3813
ently	-3814
▁Park	-3815
▁Thema	-3816
▁Lassen	-3817
▁modern	-3818
▁obwohl	-3819
bau	-3820
▁Dr	-3821
▁foot	-3822
orning	-3823
▁verbess	-3824
▁gemeinsam	-3825
com	-3826
ops	-3827
abil	-3828
wirk	-3829
hrte	-3830
omin	-3831
▁fear	-3832
▁beein	-3833
▁hervor	-3834
▁Bra	-3835
▁sitting	-3836
What	-3837
samkeit	-3838
▁mechan	-3839
ows	-3840
ämp	-3841
▁Kü	-3842
fluss	-3843
ustain	-3844
▁Mikro	-3845
▁bleiben	-3846
ades	-3847
aught	-3848
▁fight	-3849
▁either	-3850
▁suchen	-3851
You	-3852
bon	-3853
irm	-3854
▁Stand	-3855
imension	-3856
▁Staaten	-3857
▁draw	-3858
▁Instit	-3859
▁anderer	-3860
▁gleiche	-3861
▁neg	-3862
▁instit	-3863
▁measure	-3864
cen	-3865
cks	-3866
▁Per	-3867
▁Nein	-3868
▁areas	-3869
flanzen	-3870
▁Afghan	-3871
bol	-3872
hrung	-3873
hören	-3874
ierend	-3875
ötzlich	-3876
▁Lösung	-3877
▁sollen	-3878
▁respons	-3879
▁surface	-3880
▁attention	-3881
▁incredible	-3882
▁Plan	-3883
▁write	-3884
▁fragte	-3885
go	-3886
▁nu	-3887
ests	-3888
rate	-3889
▁ermö	-3890
▁Innov	-3891
▁National	-3892
▁Kr	-3893
▁Ist	-3894
öße	-3895
ators	-3896
▁caus	-3897
▁Woche	-3898
▁Bereich	-3899
▁Gesicht	-3900
▁besteht	-3901
▁Lond	-3902
▁Viele	-3903
▁ed	-3904
▁teilen	-3905
▁consider	-3906
▁challenge	-3907
▁ve	-3908
▁Dam	-3909
zogen	-3910
▁West	-3911
ha	-3912
lef	-3913
▁Mot	-3914
▁eat	-3915
ilden	-3916
▁Nahr	-3917
▁Right	-3918
▁Schwe	-3919
▁Monate	-3920
▁structure	-3921
▁individual	-3922
oon	-3923
▁Tra	-3924
▁dad	-3925
ichter	-3926
▁based	-3927
udenten	-3928
▁bottom	-3929
▁patients	-3930
▁betrachten	-3931
rote	-3932
▁hor	-3933
▁prim	-3934
▁blood	-3935
ausende	-3936
▁numbers	-3937
▁schwierig	-3938
▁Dan	-3939
▁Sym	-3940
jekte	-3941
▁main	-3942
▁direct	-3943
▁photograph	-3944
Was	-3945
rän	-3946
▁komplex	-3947
We	-3948
▁Hoff	-3949
▁step	-3950
▁changes	-3951
▁funktionieren	-3952
ex	-3953
ilar	-3954
▁squ	-3955
▁slow	-3956
▁Ländern	-3957
erstör	-3958
▁Namen	-3959
ünstler	-3960
▁essent	-3961
▁unseres	-3962
▁bar	-3963
▁Ster	-3964
gebung	-3965
▁Autos	-3966
ology	-3967
▁Liebe	-3968
▁climate	-3969
▁genauso	-3970
▁univers	-3971
▁transform	-3972
eum	-3973
inos	-3974
▁Bede	-3975
▁clos	-3976
▁zuvor	-3977
▁morning	-3978
äm	-3979
gefühl	-3980
▁wouldn	-3981
arbeitet	-3982
lin	-3983
oid	-3984
merk	-3985
▁Bau	-3986
▁box	-3987
▁Medik	-3988
▁benöt	-3989
elbe	-3990
▁comb	-3991
▁realize	-3992
▁gefunden	-3993
▁physical	-3994
ikal	-3995
reds	-3996
▁Kat	-3997
zeuge	-3998
▁crit	-3999
▁London	-4000
▁consum	-4001
▁größten	-4002
chie	-4003
lang	-4004
▁emp	-4005
▁Fern	-4006
▁gives	-4007
▁Zellen	-4008
▁meaning	-4009
▁Familien	-4010
▁international	-4011
druck	-4012
ustrie	-4013
osition	-4014
ox	-4015
▁Tats	-4016
▁fall	-4017
forsch	-4018
▁trotz	-4019
▁average	-4020
▁growing	-4021
sc	-4022
▁Mc	-4023
▁Red	-4024
▁log	-4025
ieten	-4026
ollen	-4027
zeigt	-4028
▁farm	-4029
▁pull	-4030
assion	-4031
▁brought	-4032
ores	-4033
finden	-4034
▁Ihren	-4035
▁impact	-4036
oes	-4037
ival	-4038
frast	-4039
gegen	-4040
▁teil	-4041
▁images	-4042
▁emer	-4043
▁sudden	-4044
▁amerikan	-4045
kre	-4046
este	-4047
itze	-4048
▁Our	-4049
utung	-4050
lossen	-4051
▁developed	-4052
vest	-4053
atten	-4054
stein	-4055
▁neues	-4056
▁schre	-4057
▁Modell	-4058
▁zweite	-4059
▁sterben	-4060
zw	-4061
▁kn	-4062
▁tw	-4063
▁born	-4064
▁English	-4065
▁knowledge	-4066
uit	-4067
▁Com	-4068
itzen	-4069
▁finan	-4070
▁medic	-4071
▁feeling	-4072
▁verbunden	-4073
bene	-4074
jähr	-4075
ynam	-4076
▁Sol	-4077
▁sieben	-4078
gn	-4079
ieg	-4080
wart	-4081
▁With	-4082
▁Kraft	-4083
ks	-4084
aft	-4085
blick	-4086
▁seems	-4087
▁theory	-4088
▁Arbeits	-4089
▁national	-4090
▁Är	-4091
▁Best	-4092
▁Wahl	-4093
gewöhn	-4094
▁books	-4095
▁scheint	-4096
▁Wissenschaftler	-4097
leep	-4098
▁vol	-4099
ouble	-4100
ziale	-4101
▁Fisch	-4102
▁Krieg	-4103
▁nimmt	-4104
▁spread	-4105
▁Frei	-4106
▁Unsere	-4107
▁kaufen	-4108
In	-4109
ätze	-4110
▁500	-4111
licht	-4112
▁Verl	-4113
reifen	-4114
unehmen	-4115
▁größte	-4116
igkeiten	-4117
berfläche	-4118
entlichen	-4119
▁understanding	-4120
ube	-4121
▁Fin	-4122
▁deg	-4123
▁ign	-4124
inzip	-4125
▁Europ	-4126
▁giving	-4127
▁beeinfl	-4128
isst	-4129
▁led	-4130
ikaner	-4131
▁civil	-4132
▁lesen	-4133
▁forward	-4134
äß	-4135
▁X	-4136
Das	-4137
bre	-4138
▁flo	-4139
▁Medien	-4140
▁langsam	-4141
▁Bewegung	-4142
▁Revolution	-4143
▁erschaffen	-4144
▁Gemeinschaft	-4145
▁technologies	-4146
ored	-4147
▁syn	-4148
▁Heute	-4149
▁bitte	-4150
▁color	-4151
▁force	-4152
▁liebe	-4153
▁running	-4154
▁welches	-4155
völkerung	-4156
▁audience	-4157
eng	-4158
chsel	-4159
bten	-4160
idge	-4161
ktor	-4162
▁Cent	-4163
▁wrote	-4164
▁scientists	-4165
▁map	-4166
mosph	-4167
organ	-4168
▁Sehen	-4169
▁tools	-4170
▁gelernt	-4171
cis	-4172
oper	-4173
weis	-4174
▁vill	-4175
aliforn	-4176
▁includ	-4177
▁starting	-4178
ersp	-4179
▁Jed	-4180
produ	-4181
▁Wert	-4182
▁prom	-4183
▁literally	-4184
ja	-4185
▁CO	-4186
agieren	-4187
▁Bürger	-4188
▁Technik	-4189
▁Labor	-4190
▁favor	-4191
▁visual	-4192
▁draußen	-4193
▁erinnern	-4194
▁millions	-4195
▁Mag	-4196
▁Brit	-4197
▁Yeah	-4198
▁clear	-4199
▁center	-4200
▁electric	-4201
▁revolution	-4202
head	-4203
▁Zahl	-4204
▁nice	-4205
estern	-4206
gliche	-4207
▁South	-4208
.,	-4209
äuft	-4210
▁Kam	-4211
lagen	-4212
▁hast	-4213
▁neigh	-4214
prochen	-4215
▁anyone	-4216
▁serious	-4217
▁creating	-4218
▁gegenüber	-4219
ips	-4220
jen	-4221
▁24	-4222
▁Gef	-4223
▁prin	-4224
zeitig	-4225
▁white	-4226
▁hundreds	-4227
▁fa	-4228
aged	-4229
▁Reihe	-4230
▁erzählt	-4231
ochen	-4232
▁197	-4233
▁dead	-4234
▁fail	-4235
▁nahm	-4236
▁Schritt	-4237
▁Programm	-4238
▁erklären	-4239
▁wissenschaft	-4240
Th	-4241
▁Tw	-4242
▁fair	-4243
▁rein	-4244
▁wachsen	-4245
▁Technologien	-4246
obody	-4247
▁Alle	-4248
▁Phys	-4249
▁cars	-4250
▁curr	-4251
▁path	-4252
▁ausge	-4253
▁miles	-4254
▁leicht	-4255
▁glücklich	-4256
▁Verbindung	-4257
ID	-4258
olz	-4259
▁City	-4260
▁Jeder	-4261
▁Recht	-4262
▁alone	-4263
▁Mathemat	-4264
▁schließlich	-4265
aly	-4266
▁Erk	-4267
▁Tem	-4268
▁erfolg	-4269
▁hinaus	-4270
▁bewusst	-4271
▁sustain	-4272
aff	-4273
▁optim	-4274
▁fanden	-4275
▁gewesen	-4276
▁telling	-4277
ploy	-4278
▁ice	-4279
▁sea	-4280
▁hine	-4281
▁soon	-4282
andeln	-4283
▁Muster	-4284
▁passieren	-4285
iod	-4286
▁San	-4287
urity	-4288
ändig	-4289
▁hosp	-4290
▁gebaut	-4291
▁bekannt	-4292
▁geworden	-4293
hy	-4294
ules	-4295
▁eye	-4296
▁Rück	-4297
▁stage	-4298
▁stran	-4299
▁versch	-4300
▁Kranken	-4301
org	-4302
use	-4303
▁et	-4304
zens	-4305
▁Eis	-4306
▁lif	-4307
▁unterst	-4308
▁Wahrheit	-4309
▁mob	-4310
äsent	-4311
▁bege	-4312
▁fert	-4313
▁worth	-4314
des	-4315
ped	-4316
ativ	-4317
▁Face	-4318
▁jemals	-4319
mar	-4320
▁By	-4321
afft	-4322
ances	-4323
igent	-4324
▁text	-4325
▁suggest	-4326
wirtschaft	-4327
▁Natürlich	-4328
▁Afghanistan	-4329
▁development	-4330
clear	-4331
▁protect	-4332
cond	-4333
otyp	-4334
▁Team	-4335
▁sehe	-4336
▁guess	-4337
▁daraus	-4338
▁ko	-4339
▁Ök	-4340
iled	-4341
rift	-4342
▁Süd	-4343
▁Blick	-4344
▁Christ	-4345
▁Studenten	-4346
▁discovered	-4347
▁miteinander	-4348
uals	-4349
▁flu	-4350
▁hil	-4351
▁mer	-4352
▁tri	-4353
▁bist	-4354
▁post	-4355
▁Tatsache	-4356
▁developing	-4357
icy	-4358
▁cult	-4359
▁avail	-4360
▁proper	-4361
rael	-4362
asing	-4363
▁block	-4364
▁issue	-4365
▁perfe	-4366
▁folgen	-4367
▁playing	-4368
▁300	-4369
▁har	-4370
rolle	-4371
älfte	-4372
▁road	-4373
▁movement	-4374
örter	-4375
gessen	-4376
▁travel	-4377
▁verloren	-4378
gor	-4379
▁1,	-4380
alter	-4381
onstr	-4382
▁Gewalt	-4383
▁schwar	-4384
▁beginnt	-4385
▁nachdem	-4386
▁aussehen	-4387
▁196	-4388
▁dru	-4389
ungsk	-4390
zeugt	-4391
▁Stre	-4392
▁wert	-4393
▁deshalb	-4394
bew	-4395
▁Rad	-4396
▁eth	-4397
▁hon	-4398
▁lay	-4399
▁mom	-4400
▁aren	-4401
▁song	-4402
iation	-4403
▁Alles	-4404
▁Stimme	-4405
▁positive	-4406
▁Krankheit	-4407
aves	-4408
usch	-4409
▁übr	-4410
itäten	-4411
▁among	-4412
▁hig	-4413
wegen	-4414
▁suff	-4415
▁type	-4416
▁Besch	-4417
▁Platz	-4418
iqu	-4419
oose	-4420
ichtet	-4421
▁Reise	-4422
▁Sicht	-4423
▁Anzahl	-4424
▁concept	-4425
▁anfangen	-4426
0,	-4427
neh	-4428
▁Bas	-4429
▁dro	-4430
ragen	-4431
▁Bildung	-4432
▁möchten	-4433
iko	-4434
▁Ris	-4435
▁Tit	-4436
▁spir	-4437
▁neben	-4438
▁Städte	-4439
▁showed	-4440
umb	-4441
cker	-4442
▁mache	-4443
▁Richtung	-4444
▁solution	-4445
Sch	-4446
uchs	-4447
▁save	-4448
▁zehn	-4449
▁voice	-4450
▁attack	-4451
▁findet	-4452
öst	-4453
ille	-4454
lebt	-4455
ctors	-4456
▁Blut	-4457
gorith	-4458
▁kleines	-4459
▁Demokrat	-4460
▁konzentr	-4461
fern	-4462
wind	-4463
▁Ira	-4464
▁est	-4465
▁verm	-4466
▁benef	-4467
pecially	-4468
▁industry	-4469
▁innovation	-4470
aß	-4471
▁Fr	-4472
▁Ken	-4473
▁raus	-4474
▁sell	-4475
▁truth	-4476
▁issues	-4477
▁similar	-4478
▁Facebook	-4479
▁Tatsächlich	-4480
▁Arm	-4481
▁Som	-4482
▁pur	-4483
icans	-4484
▁dein	-4485
▁smart	-4486
▁Einige	-4487
▁search	-4488
▁Aufgabe	-4489
▁Fuß	-4490
▁Viel	-4491
▁guten	-4492
▁solve	-4493
achstum	-4494
▁danach	-4495
▁experien	-4496
▁recently	-4497
▁weltweit	-4498
▁kü	-4499
aubt	-4500
▁tend	-4501
▁Super	-4502
▁chance	-4503
▁faszin	-4504
▁convers	-4505
▁patient	-4506
▁Forschung	-4507
▁resources	-4508
▁absolutely	-4509
ered	-4510
▁Rel	-4511
▁ear	-4512
griff	-4513
recht	-4514
▁acht	-4515
▁sofort	-4516
Pro	-4517
▁Pf	-4518
yond	-4519
atell	-4520
ideos	-4521
▁toll	-4522
ustral	-4523
▁Ihrem	-4524
▁Ihrer	-4525
▁Rolle	-4526
▁achie	-4527
▁gefähr	-4528
▁gezeigt	-4529
▁Veränderung	-4530
ügen	-4531
▁Aben	-4532
▁Stat	-4533
▁falls	-4534
▁sever	-4535
▁reasons	-4536
▁stellte	-4537
▁Bedeutung	-4538
▁incredibly	-4539
▁entscheiden	-4540
ique	-4541
▁Hel	-4542
▁Meer	-4543
▁camp	-4544
▁Chinese	-4545
▁Während	-4546
▁schrieb	-4547
▁Umgebung	-4548
▁beschäft	-4549
▁designed	-4550
ley	-4551
▁cy	-4552
▁tö	-4553
anze	-4554
bsite	-4555
▁Rich	-4556
▁tiny	-4557
setzen	-4558
▁entfernt	-4559
▁Vorstellung	-4560
ny	-4561
ining	-4562
▁blind	-4563
▁moder	-4564
▁solar	-4565
▁asking	-4566
▁Deshalb	-4567
▁Produkt	-4568
▁plötzlich	-4569
▁compassion	-4570
racy	-4571
▁def	-4572
▁Eigen	-4573
bringen	-4574
sichtlich	-4575
xy	-4576
olf	-4577
dlich	-4578
ierungen	-4579
lim	-4580
▁Prof	-4581
▁egal	-4582
▁infl	-4583
▁shape	-4584
▁talked	-4585
▁medical	-4586
▁soziale	-4587
▁cop	-4588
▁fur	-4589
oices	-4590
▁rate	-4591
ishing	-4592
▁Aktiv	-4593
▁Teile	-4594
▁produce	-4595
▁verwendet	-4596
▁Entscheidungen	-4597
teilt	-4598
andelt	-4599
▁knows	-4600
▁genannt	-4601
▁changing	-4602
rel	-4603
iers	-4604
ünden	-4605
▁pack	-4606
▁samm	-4607
▁react	-4608
▁allein	-4609
▁available	-4610
▁iP	-4611
auft	-4612
feren	-4613
▁sold	-4614
gemein	-4615
▁Erfolg	-4616
▁Sonnen	-4617
▁Wirklich	-4618
▁evidence	-4619
SA	-4620
zte	-4621
▁Jo	-4622
ossen	-4623
▁cover	-4624
▁message	-4625
legt	-4626
▁jen	-4627
roffen	-4628
▁elekt	-4629
▁haven	-4630
itation	-4631
▁vision	-4632
▁predict	-4633
▁Realität	-4634
vin	-4635
ritten	-4636
▁aufge	-4637
▁milit	-4638
▁depend	-4639
▁period	-4640
zufinden	-4641
▁Straßen	-4642
▁bekommt	-4643
▁Mex	-4644
ified	-4645
ussen	-4646
▁Mark	-4647
▁wall	-4648
▁Größe	-4649
▁Psych	-4650
unktion	-4651
wachsen	-4652
▁benutzt	-4653
omb	-4654
unkte	-4655
▁Paul	-4656
▁beyond	-4657
▁choice	-4658
▁komplett	-4659
▁Situation	-4660
▁Ed	-4661
fore	-4662
▁fing	-4663
▁fire	-4664
▁Hälfte	-4665
▁Meinung	-4666
▁involved	-4667
yr	-4668
IDS	-4669
▁Bel	-4670
▁Zent	-4671
▁flow	-4672
▁veröff	-4673
▁Medizin	-4674
▁Entwicklungs	-4675
orts	-4676
▁Beg	-4677
▁anc	-4678
▁baby	-4679
▁tells	-4680
▁touch	-4681
isierung	-4682
▁situation	-4683
▁Herausforderung	-4684
how	-4685
pfer	-4686
▁fix	-4687
essor	-4688
oring	-4689
▁Chem	-4690
▁entsp	-4691
▁sonst	-4692
▁street	-4693
▁computers	-4694
▁erfolgreich	-4695
gra	-4696
roh	-4697
wood	-4698
▁tat	-4699
▁Iran	-4700
▁hundred	-4701
▁kleiner	-4702
▁subject	-4703
▁especially	-4704
▁Fä	-4705
itch	-4706
setz	-4707
▁Dor	-4708
sequen	-4709
▁erklär	-4710
▁becomes	-4711
▁pictures	-4712
.“	-4713
▁Nord	-4714
lage	-4715
▁Erd	-4716
▁peace	-4717
▁bigger	-4718
▁niemals	-4719
cts	-4720
hern	-4721
▁ult	-4722
führen	-4723
▁beide	-4724
▁drive	-4725
▁region	-4726
▁nachdenken	-4727
▁ak	-4728
lied	-4729
iesen	-4730
▁Schü	-4731
▁wish	-4732
▁alten	-4733
▁dream	-4734
▁intelligen	-4735
anda	-4736
▁ann	-4737
▁geh	-4738
▁yes	-4739
utage	-4740
indern	-4741
▁überw	-4742
▁Studie	-4743
Wir	-4744
▁Of	-4745
room	-4746
▁Sau	-4747
▁Foto	-4748
▁girls	-4749
▁carbon	-4750
▁danger	-4751
▁writing	-4752
▁Wind	-4753
▁bekam	-4754
▁mögen	-4755
agement	-4756
▁erreicht	-4757
inne	-4758
▁hoffe	-4759
möglich	-4760
▁länger	-4761
▁putting	-4762
▁betrachte	-4763
imen	-4764
▁Kil	-4765
▁Von	-4766
ängen	-4767
▁rules	-4768
▁sleep	-4769
▁except	-4770
▁kontroll	-4771
ibr	-4772
back	-4773
▁wid	-4774
stens	-4775
ologie	-4776
▁lived	-4777
▁likely	-4778
▁Austral	-4779
▁Generation	-4780
▁generation	-4781
▁profession	-4782
▁Bi	-4783
▁Na	-4784
▁Preis	-4785
▁function	-4786
▁Nachrichten	-4787
ags	-4788
kel	-4789
umor	-4790
▁Hir	-4791
üssel	-4792
▁Prinzip	-4793
▁jemanden	-4794
▁Mitgefühl	-4795
ms	-4796
▁Tür	-4797
plant	-4798
ziert	-4799
▁Strom	-4800
▁bacter	-4801
▁groups	-4802
utzutage	-4803
▁general	-4804
▁verrück	-4805
▁fundamental	-4806
fre	-4807
iar	-4808
ford	-4809
▁fem	-4810
▁Straße	-4811
▁fahren	-4812
▁laufen	-4813
▁lieben	-4814
▁ziehen	-4815
band	-4816
▁Nie	-4817
esser	-4818
▁ersch	-4819
▁Ju	-4820
asen	-4821
ißen	-4822
▁See	-4823
▁breat	-4824
▁software	-4825
auch	-4826
itet	-4827
äume	-4828
▁Tat	-4829
▁drug	-4830
▁evol	-4831
▁North	-4832
▁schau	-4833
▁total	-4834
▁Europa	-4835
▁several	-4836
▁Sm	-4837
adem	-4838
arily	-4839
ected	-4840
▁Bill	-4841
▁ball	-4842
▁rock	-4843
▁Mitte	-4844
▁table	-4845
bildung	-4846
▁Bakter	-4847
▁gegeben	-4848
▁sent	-4849
▁Zahlen	-4850
▁gingen	-4851
▁bestimmt	-4852
▁extraord	-4853
ify	-4854
▁Bab	-4855
▁Will	-4856
▁died	-4857
▁nine	-4858
▁zeige	-4859
▁Kosten	-4860
▁device	-4861
▁Amerika	-4862
ounds	-4863
▁dram	-4864
▁First	-4865
▁Geist	-4866
▁daher	-4867
▁drugs	-4868
▁einfache	-4869
pped	-4870
▁Sonne	-4871
▁links	-4872
▁nennt	-4873
▁Jahrze	-4874
▁nachzu	-4875
arbeiten	-4876
▁conscious	-4877
put	-4878
▁unbe	-4879
lassen	-4880
▁Papier	-4881
▁action	-4882
▁integr	-4883
▁necess	-4884
▁setzen	-4885
▁spricht	-4886
▁Eink	-4887
▁motiv	-4888
▁towards	-4889
▁überras	-4890
▁genommen	-4891
▁herauszufinden	-4892
▁op	-4893
kehr	-4894
▁bee	-4895
▁Einz	-4896
▁rich	-4897
jenigen	-4898
▁Bewusst	-4899
▁capital	-4900
▁strateg	-4901
▁geschieht	-4902
▁schneller	-4903
zü	-4904
win	-4905
affe	-4906
▁Nur	-4907
ienst	-4908
▁sounds	-4909
▁Künstler	-4910
hre	-4911
änge	-4912
▁Don	-4913
ously	-4914
dessen	-4915
▁Israel	-4916
▁größer	-4917
▁schools	-4918
ada	-4919
oke	-4920
atic	-4921
▁akt	-4922
▁sat	-4923
olekü	-4924
spiel	-4925
▁near	-4926
▁intro	-4927
▁Hinter	-4928
indungen	-4929
▁geboren	-4930
▁projects	-4931
▁potential	-4932
▁Fähigkeiten	-4933
oß	-4934
ami	-4935
imal	-4936
▁Maß	-4937
▁speed	-4938
▁brachte	-4939
▁machten	-4940
amb	-4941
▁Sex	-4942
flict	-4943
▁basic	-4944
▁virus	-4945
▁Vereinigten	-4946
ällt	-4947
▁Pal	-4948
ätzen	-4949
▁anzu	-4950
nehmer	-4951
ämpfen	-4952
erstoff	-4953
enschaft	-4954
▁journey	-4955
rief	-4956
teile	-4957
älter	-4958
▁onto	-4959
abhäng	-4960
ivität	-4961
▁After	-4962
▁refle	-4963
▁Kommun	-4964
▁Fortsch	-4965
▁fliegen	-4966
stru	-4967
▁000	-4968
▁gek	-4969
▁lok	-4970
seite	-4971
verty	-4972
▁Geme	-4973
indest	-4974
▁Where	-4975
▁games	-4976
▁Schauen	-4977
wirkungen	-4978
▁Maschine	-4979
▁Beziehung	-4980
▁materials	-4981
▁University	-4982
▁Vol	-4983
▁Hoch	-4984
▁Firma	-4985
▁kreat	-4986
▁examples	-4987
▁interessiert	-4988
▁particularly	-4989
unger	-4990
▁frei	-4991
weisen	-4992
▁activ	-4993
▁liegen	-4994
atte	-4995
come	-4996
▁kur	-4997
▁mut	-4998
▁Leid	-4999
▁moved	-5000
▁Politik	-5001
▁quality	-5002
▁Oberfläche	-5003
▁scientific	-5004
▁wirtschaft	-5005
ette	-5006
artet	-5007
▁park	-5008
▁Ergebnis	-5009
▁sozialen	-5010
▁1.	-5011
▁la	-5012
pidem	-5013
▁Meter	-5014
ilosoph	-5015
▁anybody	-5016
▁results	-5017
▁Hoffnung	-5018
ech	-5019
the	-5020
lauf	-5021
▁character	-5022
▁Det	-5023
▁hit	-5024
antly	-5025
▁warm	-5026
▁track	-5027
▁office	-5028
wh	-5029
esh	-5030
▁gebe	-5031
▁rece	-5032
▁stimmt	-5033
▁Richard	-5034
▁absolut	-5035
▁anstatt	-5036
▁zerstör	-5037
▁happiness	-5038
▁Gu	-5039
▁TV	-5040
feld	-5041
▁Are	-5042
▁Männ	-5043
▁bank	-5044
lungen	-5045
teilen	-5046
▁Kolle	-5047
▁Fehler	-5048
▁showing	-5049
Die	-5050
piele	-5051
▁nahe	-5052
▁wild	-5053
▁Islam	-5054
▁mount	-5055
▁multi	-5056
▁histor	-5057
▁gesamte	-5058
▁oh	-5059
viel	-5060
▁Yes	-5061
▁heut	-5062
isions	-5063
▁plant	-5064
▁trust	-5065
▁wants	-5066
▁Behand	-5067
▁student	-5068
ham	-5069
onse	-5070
▁arr	-5071
▁Wand	-5072
▁demonstr	-5073
▁wichtige	-5074
▁transport	-5075
▁Demokratie	-5076
▁repl	-5077
▁Kreat	-5078
▁Maybe	-5079
▁apart	-5080
▁biggest	-5081
▁largest	-5082
▁passion	-5083
▁begannen	-5084
issenschaft	-5085
merksamkeit	-5086
▁gleichzeitig	-5087
leg	-5088
bung	-5089
▁nein	-5090
▁Armut	-5091
▁Schön	-5092
▁verfü	-5093
▁starts	-5094
▁Schulen	-5095
▁teachers	-5096
medi	-5097
▁gas	-5098
▁cris	-5099
gendes	-5100
trauen	-5101
▁ernst	-5102
▁walking	-5103
▁geschrieben	-5104
ägt	-5105
bald	-5106
ickt	-5107
ikel	-5108
oming	-5109
▁Ding	-5110
▁sprach	-5111
▁further	-5112
▁irgende	-5113
▁chemical	-5114
▁progress	-5115
▁violence	-5116
▁Aufmerksamkeit	-5117
ee	-5118
arf	-5119
▁Zw	-5120
ellow	-5121
enken	-5122
▁Druck	-5123
▁Karte	-5124
▁effic	-5125
▁verurs	-5126
▁zuerst	-5127
▁dachten	-5128
▁creative	-5129
▁obviously	-5130
enk	-5131
▁Russ	-5132
▁verh	-5133
altung	-5134
ativen	-5135
▁Alter	-5136
▁Ozean	-5137
▁separ	-5138
▁memory	-5139
▁screen	-5140
▁exciting	-5141
▁security	-5142
▁wichtiger	-5143
▁Fle	-5144
▁Frü	-5145
ghter	-5146
▁Terr	-5147
▁clean	-5148
▁graph	-5149
▁Gruppen	-5150
▁poverty	-5151
▁certainly	-5152
ta	-5153
igens	-5154
▁bill	-5155
▁cross	-5156
▁Wieder	-5157
▁medizin	-5158
▁democracy	-5159
▁gesprochen	-5160
ari	-5161
zer	-5162
ürf	-5163
more	-5164
▁früher	-5165
▁hinein	-5166
▁terror	-5167
▁Pflanzen	-5168
ohl	-5169
▁Po	-5170
▁Auch	-5171
▁Büro	-5172
▁desc	-5173
▁prot	-5174
plicated	-5175
▁context	-5176
▁totally	-5177
▁everywhere	-5178
like	-5179
nete	-5180
▁Any	-5181
▁jobs	-5182
ometer	-5183
tember	-5184
▁Seiten	-5185
▁großer	-5186
▁threat	-5187
▁tragen	-5188
▁Menschheit	-5189
▁Sw	-5190
stre	-5191
▁400	-5192
▁Abs	-5193
▁fam	-5194
▁bald	-5195
▁Bücher	-5196
▁kosten	-5197
▁nobody	-5198
▁Studien	-5199
▁neighbor	-5200
▁extremely	-5201
▁Experiment	-5202
▁Id	-5203
erve	-5204
front	-5205
odies	-5206
▁door	-5207
▁role	-5208
▁carry	-5209
▁camera	-5210
▁compet	-5211
▁member	-5212
▁bessere	-5213
▁particip	-5214
etic	-5215
▁swe	-5216
astic	-5217
▁meant	-5218
▁Regeln	-5219
▁bewegt	-5220
▁higher	-5221
▁transl	-5222
ror	-5223
deck	-5224
▁Eff	-5225
▁Erf	-5226
▁Kan	-5227
▁Tro	-5228
▁Baby	-5229
▁Genau	-5230
▁Reaktion	-5231
▁conflict	-5232
▁verlassen	-5233
icle	-5234
▁Dorf	-5235
▁Orte	-5236
▁citi	-5237
▁dynam	-5238
▁junge	-5239
▁Wörter	-5240
▁Zugang	-5241
▁account	-5242
▁Evolution	-5243
▁passierte	-5244
▁represent	-5245
▁Bevölkerung	-5246
IT	-5247
osen	-5248
plan	-5249
ulpt	-5250
▁150	-5251
▁nar	-5252
▁ihres	-5253
▁kompl	-5254
ruption	-5255
▁verbra	-5256
▁deliver	-5257
▁ähnlich	-5258
▁response	-5259
imin	-5260
▁Hin	-5261
▁inf	-5262
▁capt	-5263
ustand	-5264
▁sahen	-5265
underte	-5266
▁bedeuten	-5267
ramm	-5268
▁Ser	-5269
▁Str	-5270
▁ehr	-5271
▁mis	-5272
▁Ress	-5273
ground	-5274
ourcen	-5275
wasser	-5276
▁spirit	-5277
▁verbessern	-5278
ares	-5279
erei	-5280
▁hot	-5281
dress	-5282
▁Most	-5283
▁lose	-5284
▁Niger	-5285
osystem	-5286
▁Einfluss	-5287
▁continue	-5288
▁Medikamen	-5289
▁beobachten	-5290
abel	-5291
mark	-5292
▁boy	-5293
▁Himm	-5294
▁appl	-5295
▁poll	-5296
▁minds	-5297
▁brains	-5298
▁notice	-5299
▁private	-5300
▁collabor	-5301
▁Kontrolle	-5302
unt	-5303
krie	-5304
▁Los	-5305
▁gern	-5306
▁trial	-5307
▁urban	-5308
▁Versuch	-5309
▁objects	-5310
▁favorite	-5311
▁bestimmten	-5312
▁.	-5313
mon	-5314
ppe	-5315
▁Baum	-5316
▁ö	-5317
ael	-5318
lei	-5319
rage	-5320
zies	-5321
▁Col	-5322
▁sod	-5323
▁zus	-5324
eless	-5325
▁birth	-5326
▁ready	-5327
ikation	-5328
▁sequen	-5329
▁Software	-5330
▁thousand	-5331
ils	-5332
inken	-5333
ächen	-5334
▁näher	-5335
unately	-5336
▁including	-5337
▁versuchte	-5338
▁gearbeitet	-5339
ery	-5340
etze	-5341
ützt	-5342
▁Uhr	-5343
▁sil	-5344
▁Sohn	-5345
▁safe	-5346
▁sand	-5347
▁Telef	-5348
▁adult	-5349
▁prakt	-5350
iologie	-5351
ossible	-5352
▁Universität	-5353
amin	-5354
▁ine	-5355
zusch	-5356
▁Wohn	-5357
▁natür	-5358
indruck	-5359
▁nation	-5360
▁watching	-5361
▁Innovation	-5362
▁individuals	-5363
▁extraordinary	-5364
ala	-5365
ller	-5366
▁cause	-5367
▁trees	-5368
▁ständig	-5369
▁supposed	-5370
▁Krankheiten	-5371
uk	-5372
hes	-5373
▁vac	-5374
orfen	-5375
▁empf	-5376
▁altern	-5377
▁Grenzen	-5378
▁ansehen	-5379
▁Ag	-5380
▁Hy	-5381
▁Sim	-5382
iegel	-5383
▁lern	-5384
▁finde	-5385
▁named	-5386
▁quant	-5387
▁remark	-5388
▁Erinner	-5389
▁Monaten	-5390
▁bemerken	-5391
▁medicine	-5392
▁buildings	-5393
▁connected	-5394
▁Ir	-5395
▁NA	-5396
▁Fil	-5397
▁Lauf	-5398
▁fill	-5399
▁models	-5400
▁Konzept	-5401
▁discuss	-5402
▁perspect	-5403
▁eventually	-5404
eit	-5405
▁Trä	-5406
▁2000	-5407
▁Bank	-5408
▁Mehr	-5409
▁list	-5410
▁Regen	-5411
▁Relig	-5412
▁labor	-5413
▁bleibt	-5414
▁activity	-5415
▁Beispiele	-5416
▁psycholog	-5417
abl	-5418
rep	-5419
itte	-5420
▁Arab	-5421
▁meth	-5422
▁diagn	-5423
▁inform	-5424
▁finding	-5425
▁nuclear	-5426
▁village	-5427
▁communities	-5428
Re	-5429
tex	-5430
letz	-5431
ulate	-5432
▁gehe	-5433
▁grew	-5434
▁laun	-5435
schlag	-5436
▁crazy	-5437
peratur	-5438
▁author	-5439
entliche	-5440
▁African	-5441
ragt	-5442
▁Gel	-5443
▁Gene	-5444
▁skin	-5445
▁Morgen	-5446
▁faster	-5447
▁plants	-5448
▁return	-5449
▁source	-5450
▁studies	-5451
windigkeit	-5452
öp	-5453
kon	-5454
obil	-5455
▁Act	-5456
▁etc	-5457
▁tar	-5458
ables	-5459
▁Phil	-5460
▁Sand	-5461
▁clin	-5462
▁worse	-5463
schluss	-5464
▁affect	-5465
▁sitzen	-5466
eles	-5467
▁push	-5468
ements	-5469
▁einzelne	-5470
▁richtige	-5471
▁richtigen	-5472
▁essentially	-5473
hem	-5474
▁Hü	-5475
▁dete	-5476
▁goal	-5477
▁Eines	-5478
▁Galax	-5479
hington	-5480
▁Können	-5481
▁appear	-5482
▁Nachbar	-5483
▁concern	-5484
▁teacher	-5485
▁hospital	-5486
20	-5487
kr	-5488
joy	-5489
zwe	-5490
ünft	-5491
▁Orten	-5492
▁truly	-5493
▁disapp	-5494
▁taught	-5495
▁Twitter	-5496
▁arbeitet	-5497
▁Vergangen	-5498
▁conditions	-5499
▁offensichtlich	-5500
gy	-5501
ufe	-5502
▁Asp	-5503
▁Ord	-5504
▁Who	-5505
▁Even	-5506
▁bunch	-5507
▁movie	-5508
▁Stelle	-5509
▁bilden	-5510
▁spezie	-5511
▁Francis	-5512
▁position	-5513
▁Mathematik	-5514
sm	-5515
▁Go	-5516
lern	-5517
▁Bud	-5518
annen	-5519
aving	-5520
▁Look	-5521
▁Spaß	-5522
▁Wohl	-5523
ausend	-5524
▁lands	-5525
ilities	-5526
▁Invest	-5527
▁introdu	-5528
▁wussten	-5529
▁suddenly	-5530
▁vergessen	-5531
plex	-5532
atory	-5533
▁mine	-5534
aterie	-5535
▁denkt	-5536
▁forms	-5537
▁galax	-5538
▁waste	-5539
▁immedi	-5540
▁princi	-5541
▁colleag	-5542
üss	-5543
rior	-5544
stet	-5545
wert	-5546
▁Daher	-5547
▁shown	-5548
▁voller	-5549
▁Schüler	-5550
▁products	-5551
▁Washington	-5552
▁$	-5553
bit	-5554
olly	-5555
▁East	-5556
▁Port	-5557
▁fell	-5558
▁phen	-5559
▁doctor	-5560
▁großes	-5561
▁stress	-5562
abet	-5563
gere	-5564
uern	-5565
▁Bot	-5566
▁bal	-5567
▁rot	-5568
räfte	-5569
▁Oper	-5570
▁choose	-5571
▁verlieren	-5572
▁impossible	-5573
▁Wirklichkeit	-5574
▁nachzudenken	-5575
ürz	-5576
▁35	-5577
▁Ern	-5578
▁Tas	-5579
▁Zuf	-5580
▁Priv	-5581
▁Konfl	-5582
▁Tagen	-5583
▁Molekü	-5584
▁analys	-5585
▁crisis	-5586
ständnis	-5587
▁massive	-5588
urg	-5589
arian	-5590
▁Zeug	-5591
▁late	-5592
▁site	-5593
astrop	-5594
▁above	-5595
ustrial	-5596
▁Firmen	-5597
▁Gebiet	-5598
zeichnet	-5599
▁erzeugen	-5600
▁möglichen	-5601
▁complicated	-5602
▁Vergangenheit	-5603
abr	-5604
cape	-5605
edia	-5606
bauen	-5607
▁Kern	-5608
▁cart	-5609
▁rele	-5610
▁dahin	-5611
▁sorts	-5612
▁indeed	-5613
▁address	-5614
ued	-5615
edom	-5616
ender	-5617
onent	-5618
▁mist	-5619
ferenz	-5620
▁domin	-5621
▁höher	-5622
▁kannst	-5623
▁larger	-5624
▁erlaubt	-5625
▁respond	-5626
▁globalen	-5627
▁Bakterien	-5628
▁somewhere	-5629
▁traditional	-5630
dom	-5631
osh	-5632
rig	-5633
ires	-5634
ises	-5635
erven	-5636
▁deut	-5637
▁rain	-5638
ctions	-5639
ielten	-5640
ribute	-5641
ruction	-5642
▁Terror	-5643
legenheit	-5644
▁arbeitete	-5645
▁Ergebnisse	-5646
osm	-5647
▁sn	-5648
▁doc	-5649
▁rid	-5650
▁Sign	-5651
▁task	-5652
ensive	-5653
▁Feuer	-5654
▁killed	-5655
▁retten	-5656
▁Frieden	-5657
▁anschauen	-5658
▁Entscheidung	-5659
nder	-5660
nehm	-5661
▁stär	-5662
▁Gerät	-5663
▁lower	-5664
izations	-5665
▁England	-5666
▁allowed	-5667
▁hundert	-5668
▁gebracht	-5669
▁signific	-5670
▁»	-5671
Wie	-5672
spe	-5673
▁tä	-5674
itor	-5675
klär	-5676
ured	-5677
▁cat	-5678
▁häuf	-5679
ierende	-5680
▁minute	-5681
▁robots	-5682
ser	-5683
was	-5684
▁Gut	-5685
▁Wel	-5686
▁purp	-5687
▁Kampf	-5688
▁Worte	-5689
▁enjoy	-5690
▁Gesetz	-5691
▁Landes	-5692
▁Spezies	-5693
▁Nachricht	-5694
▁interview	-5695
▁zumindest	-5696
imb	-5697
iced	-5698
▁erg	-5699
▁earth	-5700
▁afford	-5701
▁allows	-5702
▁launch	-5703
▁mental	-5704
▁points	-5705
▁aussieht	-5706
ya	-5707
▁Mü	-5708
ckte	-5709
falt	-5710
▁kre	-5711
▁pan	-5712
rasch	-5713
▁coun	-5714
▁Leist	-5715
▁Today	-5716
▁deine	-5717
▁fascin	-5718
▁führte	-5719
▁irgendwo	-5720
▁phenomen	-5721
▁training	-5722
▁surprising	-5723
ört	-5724
merz	-5725
▁web	-5726
erman	-5727
iegen	-5728
▁winz	-5729
stellt	-5730
▁cases	-5731
▁ended	-5732
isation	-5733
▁gewalt	-5734
▁manche	-5735
▁series	-5736
▁gewinnen	-5737
▁produzieren	-5738
30	-5739
▁MIT	-5740
altet	-5741
▁AIDS	-5742
▁Kong	-5743
▁selt	-5744
▁wife	-5745
ournal	-5746
▁alive	-5747
▁attra	-5748
▁stick	-5749
▁Theorie	-5750
▁Personen	-5751
▁bacteria	-5752
fs	-5753
ius	-5754
▁pen	-5755
board	-5756
▁Haut	-5757
▁Test	-5758
▁Ebene	-5759
▁Those	-5760
▁decision	-5761
▁gesamten	-5762
▁Verantwort	-5763
vert	-5764
▁Zwei	-5765
▁echt	-5766
reiten	-5767
▁James	-5768
▁Stamm	-5769
▁hilft	-5770
▁Objekt	-5771
▁beings	-5772
▁morgen	-5773
▁usually	-5774
▁increase	-5775
▁Del	-5776
▁bur	-5777
genie	-5778
▁card	-5779
though	-5780
▁check	-5781
▁bodies	-5782
▁fertig	-5783
▁sodass	-5784
▁symbol	-5785
▁college	-5786
▁schreck	-5787
▁critical	-5788
▁families	-5789
▁architecture	-5790
No	-5791
rem	-5792
mals	-5793
mand	-5794
ücht	-5795
leist	-5796
▁High	-5797
▁inse	-5798
▁wait	-5799
▁sowohl	-5800
▁healthy	-5801
▁erfahren	-5802
▁patterns	-5803
▁standing	-5804
▁trotzdem	-5805
▁successful	-5806
ara	-5807
lier	-5808
obal	-5809
▁Imag	-5810
▁kaum	-5811
icians	-5812
werfen	-5813
▁Hände	-5814
▁older	-5815
▁einges	-5816
▁keiner	-5817
▁excited	-5818
▁physics	-5819
▁Regierungen	-5820
▁perspective	-5821
po	-5822
▁Sa	-5823
▁Jul	-5824
▁code	-5825
vented	-5826
▁price	-5827
▁conversation	-5828
ago	-5829
ids	-5830
▁dog	-5831
▁mat	-5832
▁sky	-5833
änden	-5834
örder	-5835
▁fine	-5836
▁luck	-5837
▁vert	-5838
utzung	-5839
▁George	-5840
▁School	-5841
▁pieces	-5842
▁reading	-5843
▁verbinden	-5844
▁electricity	-5845
ux	-5846
ray	-5847
uls	-5848
rene	-5849
▁Ker	-5850
▁oxy	-5851
blich	-5852
▁Heim	-5853
▁burn	-5854
▁traf	-5855
▁throw	-5856
▁prison	-5857
▁solchen	-5858
▁befinden	-5859
▁Like	-5860
▁lines	-5861
▁Geheim	-5862
▁Michael	-5863
▁doctors	-5864
▁influen	-5865
▁mention	-5866
▁provide	-5867
▁Sekunden	-5868
▁heutzutage	-5869
▁untersuchen	-5870
dig	-5871
pol	-5872
prü	-5873
isms	-5874
rang	-5875
▁Bus	-5876
holen	-5877
▁cook	-5878
ierter	-5879
machen	-5880
▁Gespr	-5881
▁aktiv	-5882
▁Chance	-5883
▁Gefäng	-5884
▁spielt	-5885
▁Netzwerk	-5886
▁erschein	-5887
▁versuche	-5888
▁treatment	-5889
ählt	-5890
▁Nor	-5891
kelet	-5892
orben	-5893
iments	-5894
▁Somet	-5895
▁aufre	-5896
ingungen	-5897
▁somehow	-5898
▁Anderson	-5899
▁specific	-5900
licherweise	-5901
▁Wahrscheinlich	-5902
ulf	-5903
wür	-5904
cies	-5905
ingu	-5906
▁Che	-5907
▁Tom	-5908
▁lag	-5909
hnung	-5910
▁Hall	-5911
▁Kons	-5912
▁upon	-5913
▁Fotos	-5914
▁Prote	-5915
▁Indian	-5916
▁Second	-5917
▁biology	-5918
▁describ	-5919
▁neurons	-5920
▁riesige	-5921
▁bestimmte	-5922
▁einzelnen	-5923
▁entdecken	-5924
▁geschehen	-5925
▁unmöglich	-5926
örp	-5927
▁Kur	-5928
iling	-5929
▁Disk	-5930
▁Präs	-5931
▁alte	-5932
▁einzig	-5933
▁rights	-5934
▁zeigte	-5935
iversity	-5936
▁himself	-5937
▁anywhere	-5938
▁argument	-5939
▁emotional	-5940
▁Amerikaner	-5941
▁Bewusstsein	-5942
aup	-5943
▁Ru	-5944
▁bor	-5945
riere	-5946
teten	-5947
▁tree	-5948
▁yeah	-5949
assung	-5950
▁talks	-5951
▁written	-5952
▁gekommen	-5953
▁Erwachsen	-5954
▁Ressourcen	-5955
▁Nä	-5956
pret	-5957
▁Tal	-5958
▁bau	-5959
▁inn	-5960
▁kept	-5961
glicht	-5962
▁magic	-5963
▁express	-5964
▁recognize	-5965
▁Architektur	-5966
amt	-5967
▁Mr	-5968
▁Sä	-5969
▁Dis	-5970
seits	-5971
▁sele	-5972
▁town	-5973
▁Monat	-5974
▁nenne	-5975
▁stars	-5976
▁Charles	-5977
▁smaller	-5978
▁decisions	-5979
hang	-5980
wers	-5981
▁Pak	-5982
kommt	-5983
redit	-5984
▁erhö	-5985
▁port	-5986
▁wirk	-5987
▁Frank	-5988
▁Times	-5989
▁Formen	-5990
▁automat	-5991
▁seconds	-5992
▁Funktion	-5993
▁Kollegen	-5994
▁Wachstum	-5995
▁aufgrund	-5996
▁military	-5997
▁programm	-5998
▁increasing	-5999
aim	-6000
ios	-6001
aria	-6002
hyth	-6003
scht	-6004
▁bab	-6005
▁hop	-6006
ahmen	-6007
▁Mond	-6008
▁hält	-6009
▁rund	-6010
ektive	-6011
wenden	-6012
▁Museum	-6013
▁erklärt	-6014
▁version	-6015
▁ermöglicht	-6016
▁Auswirkungen	-6017
▁organization	-6018
key	-6019
buch	-6020
ilet	-6021
aging	-6022
äuser	-6023
▁Arzt	-6024
▁math	-6025
▁neun	-6026
▁uses	-6027
▁wund	-6028
reitet	-6029
▁Bezug	-6030
▁letzt	-6031
▁calcul	-6032
▁runter	-6033
▁Partner	-6034
▁gefragt	-6035
▁großartige	-6036
rech	-6037
same	-6038
▁whe	-6039
sprün	-6040
▁lebt	-6041
▁page	-6042
▁wann	-6043
ightly	-6044
▁Bühne	-6045
▁angef	-6046
▁occur	-6047
▁Bienen	-6048
▁skills	-6049
▁service	-6050
zi	-6051
▁fil	-6052
▁wes	-6053
lands	-6054
▁west	-6055
istent	-6056
▁passen	-6057
▁Glauben	-6058
▁content	-6059
▁becoming	-6060
▁humanity	-6061
▁machines	-6062
mäß	-6063
▁ca	-6064
time	-6065
▁roll	-6066
ration	-6067
zimmer	-6068
▁Linie	-6069
▁genes	-6070
▁molec	-6071
ualität	-6072
▁jungen	-6073
▁messen	-6074
▁statist	-6075
▁Designer	-6076
▁listening	-6077
yle	-6078
▁Gh	-6079
▁Ok	-6080
▁cele	-6081
ieties	-6082
▁Traum	-6083
▁Which	-6084
▁actual	-6085
▁Entdeck	-6086
▁painting	-6087
▁straight	-6088
fortunately	-6089
5,	-6090
leb	-6091
äte	-6092
play	-6093
▁Sep	-6094
▁Wik	-6095
gener	-6096
äusch	-6097
zahlen	-6098
▁Zivil	-6099
▁board	-6100
▁ignor	-6101
▁employ	-6102
▁please	-6103
▁secret	-6104
▁anymore	-6105
▁dadurch	-6106
▁Beziehungen	-6107
8,	-6108
Be	-6109
ähig	-6110
▁las	-6111
▁veh	-6112
emand	-6113
▁Ball	-6114
▁Sold	-6115
ameras	-6116
erences	-6117
▁Klimaw	-6118
▁weight	-6119
▁standard	-6120
▁großartig	-6121
▁betrachtet	-6122
▁herausfinden	-6123
ino	-6124
dete	-6125
▁Wür	-6126
▁Inse	-6127
▁Rand	-6128
▁rand	-6129
▁vern	-6130
▁spect	-6131
▁Ordnung	-6132
▁leisten	-6133
▁sammeln	-6134
▁Americans	-6135
▁performance	-6136
▁öffentlichen	-6137
▁Ere	-6138
▁sor	-6139
ildet	-6140
werke	-6141
▁Berg	-6142
▁legs	-6143
▁nerv	-6144
▁rise	-6145
▁Ärzte	-6146
▁Himmel	-6147
▁beauty	-6148
▁schützen	-6149
▁dangerous	-6150
▁solutions	-6151
9,	-6152
Es	-6153
tes	-6154
hner	-6155
iner	-6156
reng	-6157
will	-6158
▁kil	-6159
▁nut	-6160
▁Höhe	-6161
atives	-6162
▁Außer	-6163
▁hörte	-6164
▁loved	-6165
▁läuft	-6166
▁determ	-6167
▁kommun	-6168
▁policy	-6169
▁verfol	-6170
▁current	-6171
▁Flugzeug	-6172
▁entdeckt	-6173
▁verstanden	-6174
pts	-6175
seit	-6176
attle	-6177
auber	-6178
ellen	-6179
ühren	-6180
▁Miss	-6181
▁cold	-6182
▁lief	-6183
▁niedr	-6184
▁strug	-6185
mitteln	-6186
▁Methode	-6187
▁greater	-6188
▁Freiheit	-6189
▁bestehen	-6190
▁einander	-6191
▁September	-6192
▁expensive	-6193
▁normalerweise	-6194
icon	-6195
trag	-6196
▁Rep	-6197
grupp	-6198
▁Gold	-6199
▁desp	-6200
▁harm	-6201
▁zufä	-6202
▁Damit	-6203
▁brand	-6204
▁danke	-6205
▁Jahres	-6206
▁Nahrung	-6207
▁Systeme	-6208
▁intelle	-6209
▁gestellt	-6210
2,	-6211
iat	-6212
sta	-6213
▁Co	-6214
aker	-6215
vard	-6216
ährt	-6217
▁höch	-6218
stoffe	-6219
▁Angel	-6220
▁Schne	-6221
▁catch	-6222
▁Gründe	-6223
▁police	-6224
zunehmen	-6225
▁brother	-6226
▁earlier	-6227
▁willing	-6228
▁Einstein	-6229
▁erzählte	-6230
▁familiar	-6231
▁entschieden	-6232
phone	-6233
steht	-6234
▁Herr	-6235
▁crow	-6236
▁jump	-6237
▁Sinne	-6238
▁glass	-6239
arbeiter	-6240
▁Imagine	-6241
▁zweiten	-6242
▁Ak	-6243
berg	-6244
elle	-6245
ffic	-6246
ütter	-6247
▁abge	-6248
▁Einer	-6249
▁drink	-6250
▁Ingenie	-6251
▁clearly	-6252
▁genetic	-6253
▁citizens	-6254
▁Maschinen	-6255
▁diejenigen	-6256
▁throughout	-6257
▁intelligence	-6258
▁Ame	-6259
acity	-6260
▁Bang	-6261
▁Verfü	-6262
▁funny	-6263
▁reich	-6264
▁älter	-6265
teilung	-6266
▁plastic	-6267
con	-6268
▁45	-6269
ften	-6270
oden	-6271
önen	-6272
▁fit	-6273
▁Erst	-6274
▁leid	-6275
▁costs	-6276
▁worry	-6277
schiede	-6278
▁Jungen	-6279
▁bisher	-6280
▁famous	-6281
▁rechts	-6282
▁außerhalb	-6283
▁Krankenhaus	-6284
▁environmental	-6285
War	-6286
ads	-6287
iant	-6288
▁sam	-6289
anter	-6290
▁Komp	-6291
▁Norm	-6292
▁früh	-6293
▁shot	-6294
▁weap	-6295
▁store	-6296
▁weren	-6297
inosaur	-6298
reprene	-6299
▁Geburt	-6300
ierenden	-6301
▁Another	-6302
▁comfort	-6303
▁practice	-6304
▁geschaffen	-6305
▁production	-6306
ae	-6307
bü	-6308
▁,	-6309
sum	-6310
▁Sl	-6311
ceed	-6312
ding	-6313
ends	-6314
▁Eth	-6315
▁ord	-6316
reten	-6317
▁Pass	-6318
rochen	-6319
▁Brust	-6320
▁range	-6321
▁fallen	-6322
▁levels	-6323
▁random	-6324
▁Harvard	-6325
▁befindet	-6326
▁übrigens	-6327
osc	-6328
itat	-6329
▁hell	-6330
änomen	-6331
▁Green	-6332
▁Liebl	-6333
▁liber	-6334
▁mächt	-6335
▁career	-6336
▁forest	-6337
▁surger	-6338
▁freedom	-6339
▁greatest	-6340
▁interessante	-6341
ancy	-6342
lant	-6343
▁ther	-6344
▁Regel	-6345
▁Darwin	-6346
▁Lernen	-6347
▁behaup	-6348
▁handelt	-6349
mend	-6350
riff	-6351
ained	-6352
iding	-6353
orien	-6354
ringt	-6355
▁antw	-6356
sweise	-6357
▁König	-6358
▁Nerven	-6359
▁decade	-6360
▁saving	-6361
▁values	-6362
▁waiting	-6363
▁website	-6364
▁einzigen	-6365
▁herunter	-6366
▁effective	-6367
▁therefore	-6368
inct	-6369
▁Kir	-6370
aries	-6371
reche	-6372
▁Mont	-6373
▁Noch	-6374
▁Vier	-6375
▁ille	-6376
tragen	-6377
▁Farbe	-6378
▁Fluss	-6379
▁Schle	-6380
▁final	-6381
▁legal	-6382
▁Comput	-6383
▁Drogen	-6384
▁Nummer	-6385
▁decades	-6386
▁welcher	-6387
▁Vergleich	-6388
7,	-6389
afr	-6390
afen	-6391
▁cru	-6392
etzte	-6393
itens	-6394
itten	-6395
reibt	-6396
rifft	-6397
▁Gefü	-6398
▁uner	-6399
stelle	-6400
gesetzt	-6401
▁artist	-6402
▁Gehirns	-6403
▁Western	-6404
▁driving	-6405
▁fantastic	-6406
▁grundlegen	-6407
▁unterstützen	-6408
äst	-6409
▁Sal	-6410
▁sus	-6411
▁Fakt	-6412
▁Wege	-6413
schuld	-6414
▁desto	-6415
▁forth	-6416
imately	-6417
▁Einzel	-6418
▁Intell	-6419
▁ebenso	-6420
▁profit	-6421
▁meeting	-6422
▁teaching	-6423
▁wundersch	-6424
▁Erfahrungen	-6425
▁amerikanischen	-6426
▁dri	-6427
▁inj	-6428
achtet	-6429
▁aufzu	-6430
▁taten	-6431
▁Beginn	-6432
▁Individ	-6433
▁Pakistan	-6434
▁Verständnis	-6435
ec	-6436
hib	-6437
upp	-6438
anne	-6439
apes	-6440
iens	-6441
▁Gal	-6442
▁His	-6443
▁ran	-6444
ählen	-6445
▁ausz	-6446
▁poet	-6447
nungen	-6448
▁encou	-6449
▁shark	-6450
unächst	-6451
▁mobile	-6452
▁remind	-6453
▁selben	-6454
▁temper	-6455
▁walked	-6456
▁remarkable	-6457
Hey	-6458
uzz	-6459
aptop	-6460
wärts	-6461
▁Hirn	-6462
▁Lehr	-6463
▁foss	-6464
▁unver	-6465
▁Meeres	-6466
▁warten	-6467
▁Erkennt	-6468
▁respect	-6469
▁strange	-6470
▁direction	-6471
▁Behandlung	-6472
▁connection	-6473
▁herstellen	-6474
▁intelligent	-6475
▁Organisation	-6476
Nein	-6477
lose	-6478
▁Jan	-6479
▁Alex	-6480
schirm	-6481
▁Muslim	-6482
▁Robert	-6483
▁babies	-6484
▁celebr	-6485
▁dritte	-6486
▁improv	-6487
▁square	-6488
▁Lösungen	-6489
▁entweder	-6490
▁heutigen	-6491
▁einfachen	-6492
▁governments	-6493
ikt	-6494
▁Lö	-6495
hers	-6496
omas	-6497
▁cry	-6498
uchst	-6499
▁Your	-6500
▁lust	-6501
ätzlich	-6502
▁myster	-6503
▁wealth	-6504
▁Californ	-6505
▁Englisch	-6506
▁erwarten	-6507
▁invented	-6508
▁politics	-6509
▁institutions	-6510
ady	-6511
alle	-6512
▁Two	-6513
▁deb	-6514
platz	-6515
unsch	-6516
▁Wald	-6517
rennen	-6518
▁ahead	-6519
▁floor	-6520
▁types	-6521
▁Westen	-6522
▁invent	-6523
▁wenige	-6524
▁choices	-6525
▁erleben	-6526
ikanischen	-6527
▁Medikamente	-6528
Ja	-6529
hi	-6530
▁km	-6531
wick	-6532
▁Bru	-6533
▁Sil	-6534
▁Ton	-6535
▁div	-6536
▁Name	-6537
▁laws	-6538
passen	-6539
▁Instr	-6540
▁Liste	-6541
▁Steve	-6542
▁match	-6543
▁method	-6544
▁services	-6545
▁Interesse	-6546
▁getroffen	-6547
▁außergewöhn	-6548
esellschaften	-6549
▁Kurz	-6550
▁Life	-6551
▁gradu	-6552
▁gutes	-6553
▁fühlte	-6554
▁Zeitpunkt	-6555
▁challenges	-6556
▁immediately	-6557
▁neighborhood	-6558
▁Veränderungen	-6559
ibl	-6560
urm	-6561
▁Bis	-6562
▁ast	-6563
▁grü	-6564
▁jud	-6565
▁win	-6566
dings	-6567
hrten	-6568
▁guter	-6569
zugehen	-6570
▁abstra	-6571
▁helped	-6572
▁mehrere	-6573
▁Manchmal	-6574
▁dasselbe	-6575
▁Einkommen	-6576
▁Schönheit	-6577
uc	-6578
fel	-6579
over	-6580
▁Mir	-6581
gency	-6582
orted	-6583
▁Cong	-6584
▁rule	-6585
ildern	-6586
barkeit	-6587
▁Stunde	-6588
▁honest	-6589
▁income	-6590
▁unique	-6591
ervation	-6592
▁Telefon	-6593
1,	-6594
ieß	-6595
hnte	-6596
▁Big	-6597
arter	-6598
▁Chic	-6599
▁Drit	-6600
▁zero	-6601
aurant	-6602
▁whose	-6603
▁Ereign	-6604
▁effects	-6605
▁popular	-6606
▁Vorstell	-6607
▁engineering	-6608
ih	-6609
hme	-6610
▁Dre	-6611
▁Neu	-6612
▁Prot	-6613
▁Think	-6614
▁Wesen	-6615
▁surve	-6616
▁flying	-6617
▁seines	-6618
▁various	-6619
▁electron	-6620
▁following	-6621
uhl	-6622
▁Arg	-6623
▁Mut	-6624
▁Amaz	-6625
▁blog	-6626
▁hart	-6627
▁race	-6628
anning	-6629
▁concl	-6630
▁erfor	-6631
▁radio	-6632
▁German	-6633
▁decide	-6634
▁shared	-6635
▁Journal	-6636
frastruct	-6637
▁Francisco	-6638
▁Jahrhunderts	-6639
rt	-6640
rees	-6641
▁Con	-6642
▁Hum	-6643
▁Kol	-6644
▁Mär	-6645
masch	-6646
round	-6647
stück	-6648
▁From	-6649
▁Mart	-6650
▁jene	-6651
▁Ident	-6652
▁apply	-6653
▁Punkte	-6654
▁Zeiten	-6655
▁gewiss	-6656
▁selten	-6657
▁useful	-6658
▁Artikel	-6659
▁California	-6660
"-	-6661
0.	-6662
seh	-6663
öse	-6664
ypoth	-6665
▁Gewe	-6666
▁hinge	-6667
▁relev	-6668
dimension	-6669
▁condition	-6670
▁financial	-6671
▁societies	-6672
▁Institution	-6673
RI	-6674
urb	-6675
▁GP	-6676
erem	-6677
▁Hom	-6678
▁Öff	-6679
▁Unser	-6680
▁Kamera	-6681
▁Worten	-6682
▁voraus	-6683
gefunden	-6684
▁install	-6685
▁instance	-6686
Ge	-6687
für	-6688
aign	-6689
ammt	-6690
▁Fen	-6691
alley	-6692
eting	-6693
ustom	-6694
▁NASA	-6695
▁hous	-6696
▁laut	-6697
▁expand	-6698
▁Statist	-6699
ico	-6700
kam	-6701
brit	-6702
iete	-6703
iles	-6704
▁Auge	-6705
▁Quad	-6706
▁Haben	-6707
▁Tisch	-6708
▁telev	-6709
▁trade	-6710
standen	-6711
▁Polize	-6712
▁Teilen	-6713
▁Vision	-6714
▁Nigeria	-6715
▁ehrlich	-6716
chnologie	-6717
▁diseases	-6718
▁enormous	-6719
▁erinnere	-6720
▁nachhalt	-6721
▁schlechte	-6722
aste	-6723
pack	-6724
▁hyd	-6725
▁sad	-6726
Warum	-6727
▁Körp	-6728
▁worst	-6729
wendung	-6730
▁commit	-6731
▁forget	-6732
▁although	-6733
▁terrible	-6734
▁Schlüssel	-6735
▁vollständ	-6736
▁creativity	-6737
▁unglaubliche	-6738
▁Verantwortung	-6739
Er	-6740
Le	-6741
Te	-6742
üh	-6743
▁Aud	-6744
▁unc	-6745
essed	-6746
▁tiss	-6747
▁Jedes	-6748
▁raise	-6749
▁Finanz	-6750
▁Thomas	-6751
▁Tieren	-6752
▁Videos	-6753
▁nahmen	-6754
▁Projekte	-6755
▁schicken	-6756
▁infrastruct	-6757
It	-6758
ners	-6759
▁End	-6760
▁wün	-6761
angel	-6762
endes	-6763
stütz	-6764
▁Grad	-6765
▁fuel	-6766
▁Werte	-6767
▁below	-6768
mission	-6769
▁Transp	-6770
▁accept	-6771
▁elektr	-6772
▁journal	-6773
▁possibly	-6774
▁ebenfalls	-6775
▁verkaufen	-6776
▁entreprene	-6777
2.	-6778
oh	-6779
wise	-6780
▁bio	-6781
▁bud	-6782
▁zug	-6783
hlung	-6784
▁Post	-6785
▁Text	-6786
▁YouT	-6787
▁dunk	-6788
▁isol	-6789
▁verme	-6790
ulieren	-6791
▁Bedürf	-6792
▁wählen	-6793
▁Chicago	-6794
▁Komplex	-6795
▁erfunden	-6796
▁üb	-6797
weil	-6798
▁Sam	-6799
ilien	-6800
selben	-6801
▁dauer	-6802
▁fällt	-6803
▁posit	-6804
▁print	-6805
gebracht	-6806
▁globale	-6807
▁Position	-6808
▁pressure	-6809
▁Gefängnis	-6810
▁existiert	-6811
frastruktur	-6812
▁durchschnitt	-6813
▁Eigenschaften	-6814
▁aid	-6815
bewer	-6816
▁Band	-6817
▁blau	-6818
▁vict	-6819
▁Plast	-6820
▁Finger	-6821
▁Physik	-6822
▁anyway	-6823
▁effekt	-6824
▁Städten	-6825
▁YouTube	-6826
▁wunderv	-6827
▁jemandem	-6828
▁original	-6829
▁religion	-6830
▁behandeln	-6831
▁vergleich	-6832
▁Fortschritt	-6833
mel	-6834
esis	-6835
ifft	-6836
hlten	-6837
iated	-6838
ufact	-6839
▁hair	-6840
▁male	-6841
▁mitt	-6842
▁aware	-6843
▁slide	-6844
▁Freude	-6845
▁summer	-6846
▁supply	-6847
▁explore	-6848
▁gedacht	-6849
▁prevent	-6850
▁survive	-6851
▁unabhäng	-6852
▁Antworten	-6853
▁Intelligen	-6854
▁Leidenschaft	-6855
Ver	-6856
maß	-6857
val	-6858
▁75	-6859
räge	-6860
▁hom	-6861
ießen	-6862
ights	-6863
kraft	-6864
▁Hund	-6865
▁Mill	-6866
▁Great	-6867
▁Suche	-6868
▁assoc	-6869
isierte	-6870
zusagen	-6871
▁female	-6872
minister	-6873
▁Männern	-6874
▁answers	-6875
▁eigenes	-6876
▁geschah	-6877
▁Produkte	-6878
▁cultural	-6879
▁konzentrieren	-6880
oge	-6881
vit	-6882
reib	-6883
uing	-6884
wohn	-6885
▁unf	-6886
▁loss	-6887
▁Junge	-6888
▁metap	-6889
geführt	-6890
▁dramat	-6891
▁senten	-6892
▁improve	-6893
▁directly	-6894
▁profound	-6895
▁slightly	-6896
▁verrückt	-6897
▁relationships	-6898
MS	-6899
do	-6900
edy	-6901
iell	-6902
▁Tor	-6903
▁imm	-6904
▁äuß	-6905
anced	-6906
cribe	-6907
folge	-6908
gaben	-6909
gründ	-6910
odell	-6911
water	-6912
▁Many	-6913
▁base	-6914
▁dank	-6915
▁rede	-6916
▁echte	-6917
▁shock	-6918
▁Schutz	-6919
▁forces	-6920
▁Erstens	-6921
▁atmosph	-6922
▁trouble	-6923
▁Freunden	-6924
▁programs	-6925
▁überleben	-6926
▁colleagues	-6927
▁television	-6928
▁Kreativität	-6929
▁ök	-6930
ikas	-6931
tech	-6932
omant	-6933
▁Gang	-6934
▁boys	-6935
ierungs	-6936
▁Ahnung	-6937
▁Schlaf	-6938
▁beantw	-6939
▁frühen	-6940
▁purpose	-6941
▁capacity	-6942
▁Verfügung	-6943
▁understood	-6944
▁verbringen	-6945
How	-6946
▁2.	-6947
onie	-6948
▁Bon	-6949
▁drop	-6950
ennung	-6951
ologen	-6952
treten	-6953
▁analy	-6954
▁komme	-6955
▁offic	-6956
▁Herzen	-6957
▁commer	-6958
▁lernte	-6959
▁target	-6960
▁central	-6961
▁algorith	-6962
▁Industrie	-6963
▁Materialien	-6964
▁99	-6965
üsse	-6966
▁Pil	-6967
▁ext	-6968
▁Nähe	-6969
▁paid	-6970
ochter	-6971
▁Insel	-6972
brechen	-6973
itionen	-6974
▁Waffen	-6975
▁causes	-6976
▁kulture	-6977
▁Religion	-6978
▁wunderbar	-6979
lös	-6980
oßen	-6981
uber	-6982
▁194	-6983
▁Sat	-6984
▁bat	-6985
▁iPh	-6986
▁mid	-6987
▁vul	-6988
hilfe	-6989
stadt	-6990
▁hall	-6991
▁tens	-6992
▁agric	-6993
▁brilli	-6994
▁sobald	-6995
▁vorbei	-6996
▁öffnen	-6997
▁tremend	-6998
geschichte	-6999
▁industrial	-7000
bet	-7001
nam	-7002
geht	-7003
▁Wass	-7004
▁hole	-7005
▁synth	-7006
▁zeich	-7007
▁Region	-7008
▁destro	-7009
▁double	-7010
▁mostly	-7011
▁trifft	-7012
ographic	-7013
▁Kapital	-7014
▁angefangen	-7015
▁ermöglichen	-7016
▁Mö	-7017
ograp	-7018
orgung	-7019
▁hinzu	-7020
britann	-7021
ktionen	-7022
▁Manche	-7023
▁Wunder	-7024
▁frustr	-7025
▁report	-7026
▁states	-7027
▁Biologie	-7028
▁consequen	-7029
▁sustainable	-7030
elf	-7031
zul	-7032
ason	-7033
aven	-7034
▁Wid	-7035
raten	-7036
▁Mitt	-7037
▁erne	-7038
▁sick	-7039
▁unge	-7040
▁manip	-7041
▁spaces	-7042
▁erzeugt	-7043
▁schlimm	-7044
▁workers	-7045
▁gegangen	-7046
▁speaking	-7047
▁entstehen	-7048
▁published	-7049
▁experiments	-7050
▁temperature	-7051
Why	-7052
pre	-7053
ärm	-7054
▁Mos	-7055
▁fro	-7056
▁sal	-7057
aling	-7058
azine	-7059
▁hört	-7060
▁chair	-7061
▁Massen	-7062
▁Schwar	-7063
▁Sommer	-7064
▁Street	-7065
▁fangen	-7066
ognitive	-7067
▁Zustand	-7068
▁helping	-7069
▁noticed	-7070
▁ursprün	-7071
▁Karriere	-7072
▁Überleben	-7073
▁Unterstütz	-7074
▁Gelegenheit	-7075
▁differences	-7076
▁Verbindungen	-7077
▁kontrollieren	-7078
▁&	-7079
anc	-7080
rot	-7081
izes	-7082
rian	-7083
▁Etw	-7084
▁Wol	-7085
▁hus	-7086
▁mix	-7087
cules	-7088
ichts	-7089
pping	-7090
▁Arme	-7091
▁Bein	-7092
▁Jobs	-7093
▁Lang	-7094
▁Rede	-7095
▁gene	-7096
▁calls	-7097
▁dance	-7098
▁häufig	-7099
▁Instead	-7100
▁Schrift	-7101
▁beeinflusst	-7102
▁communicate	-7103
▁infrastructure	-7104
col	-7105
zil	-7106
port	-7107
rect	-7108
▁Anw	-7109
icles	-7110
istry	-7111
oston	-7112
▁Denk	-7113
▁King	-7114
▁Abend	-7115
▁Colle	-7116
▁Kreis	-7117
ception	-7118
haltung	-7119
▁Farben	-7120
▁Schlag	-7121
▁Spitze	-7122
▁closer	-7123
▁intens	-7124
▁meters	-7125
▁vertra	-7126
▁Tochter	-7127
▁creates	-7128
▁evolved	-7129
▁spreche	-7130
▁surgery	-7131
▁campaign	-7132
▁negative	-7133
▁networks	-7134
▁Werkzeuge	-7135
▁reagieren	-7136
▁Gesundheits	-7137
▁Entwicklungsl	-7138
▁organizations	-7139
4,	-7140
deut	-7141
▁Tex	-7142
▁sou	-7143
rench	-7144
stieg	-7145
▁Iraq	-7146
▁Stan	-7147
▁Ther	-7148
▁heat	-7149
istenz	-7150
▁Zelle	-7151
▁frame	-7152
führung	-7153
ichtbar	-7154
▁Amazon	-7155
▁Ansatz	-7156
▁chines	-7157
▁Schluss	-7158
▁genutzt	-7159
▁kämpfen	-7160
▁markets	-7161
▁größeren	-7162
▁einzigart	-7163
▁experiences	-7164
▁herzustellen	-7165
▁Infrastruktur	-7166
gers	-7167
mell	-7168
odes	-7169
such	-7170
▁Beh	-7171
ampag	-7172
ergie	-7173
ibiot	-7174
äumen	-7175
▁Mach	-7176
▁lack	-7177
▁reve	-7178
▁Again	-7179
▁Micro	-7180
▁wider	-7181
▁Altern	-7182
▁Atlant	-7183
▁Online	-7184
▁oxygen	-7185
▁Vielfalt	-7186
▁begonnen	-7187
▁riesigen	-7188
▁geschafft	-7189
▁biological	-7190
dy	-7191
kn	-7192
erin	-7193
rize	-7194
▁Ext	-7195
▁dür	-7196
▁kor	-7197
weite	-7198
▁Erzä	-7199
▁conv	-7200
▁krie	-7201
▁vast	-7202
fassen	-7203
▁dying	-7204
▁motor	-7205
▁trick	-7206
▁twice	-7207
▁Dienst	-7208
▁akzept	-7209
▁played	-7210
▁größere	-7211
▁streets	-7212
▁Ausdruck	-7213
▁scientist	-7214
▁Sauerstoff	-7215
▁erstaunlich	-7216
▁institution	-7217
▁politischen	-7218
term	-7219
▁Get	-7220
▁Mat	-7221
▁Sun	-7222
▁fat	-7223
▁plat	-7224
▁stim	-7225
▁erwäh	-7226
▁shoot	-7227
▁Nehmen	-7228
▁highly	-7229
zeichnen	-7230
▁Knochen	-7231
▁atmosphere	-7232
▁aufgenommen	-7233
▁wichtigsten	-7234
urf	-7235
cise	-7236
fraid	-7237
hause	-7238
isted	-7239
▁bein	-7240
▁ließ	-7241
▁Bäume	-7242
▁absch	-7243
▁adapt	-7244
▁missing	-7245
▁planets	-7246
▁Unterschiede	-7247
▁beeinflussen	-7248
▁23	-7249
▁Wä	-7250
aced	-7251
itär	-7252
onym	-7253
▁amb	-7254
ctive	-7255
ekten	-7256
iffen	-7257
neten	-7258
ubble	-7259
▁Dort	-7260
▁Good	-7261
▁koll	-7262
brauch	-7263
wohner	-7264
▁Sport	-7265
▁Risiko	-7266
▁afraid	-7267
▁applic	-7268
▁custom	-7269
▁gather	-7270
▁verfüg	-7271
▁Gefühle	-7272
▁Klassen	-7273
▁präsent	-7274
▁stopped	-7275
▁Interess	-7276
▁manufact	-7277
▁surround	-7278
▁verantwort	-7279
▁od	-7280
bank	-7281
gypt	-7282
spra	-7283
uert	-7284
▁Pop	-7285
etzten	-7286
lieben	-7287
▁Wikip	-7288
▁assum	-7289
▁feels	-7290
▁photo	-7291
▁Center	-7292
▁active	-7293
▁bezahl	-7294
▁broken	-7295
▁speech	-7296
▁Atmosph	-7297
industrie	-7298
▁brauchte	-7299
▁mountain	-7300
▁Verhaltens	-7301
▁Großbritann	-7302
kur	-7303
▁2,	-7304
▁Hig	-7305
▁tax	-7306
akten	-7307
utsch	-7308
▁Adam	-7309
▁basis	-7310
▁parad	-7311
▁sogen	-7312
istisch	-7313
▁corner	-7314
▁Fenster	-7315
▁produced	-7316
▁Experimen	-7317
▁differently	-7318
▁Geschwindigkeit	-7319
gin	-7320
größ	-7321
lder	-7322
leun	-7323
stes	-7324
heben	-7325
mente	-7326
mmern	-7327
▁Wett	-7328
▁Opfer	-7329
▁Titel	-7330
▁fühlt	-7331
▁oppos	-7332
▁Boston	-7333
▁gotten	-7334
ollywood	-7335
▁notwend	-7336
▁bringing	-7337
▁inspired	-7338
▁politische	-7339
▁Klimawandel	-7340
gas	-7341
ida	-7342
zif	-7343
ulen	-7344
▁600	-7345
▁Gar	-7346
▁Lab	-7347
▁Les	-7348
idden	-7349
olden	-7350
▁Blog	-7351
▁More	-7352
▁flex	-7353
▁gift	-7354
▁wire	-7355
erecht	-7356
estens	-7357
imeter	-7358
umente	-7359
▁Paris	-7360
▁birds	-7361
▁fragt	-7362
▁rapid	-7363
▁Brazil	-7364
▁Privat	-7365
▁bought	-7366
ological	-7367
▁Angeles	-7368
▁achieve	-7369
▁Phänomen	-7370
▁controll	-7371
▁daughter	-7372
▁Geschäfts	-7373
▁designers	-7374
▁Kommunikation	-7375
▁communication	-7376
▁responsibility	-7377
holt	-7378
ogel	-7379
lecht	-7380
rical	-7381
▁Eins	-7382
▁Kore	-7383
▁krit	-7384
▁kürz	-7385
stände	-7386
▁Osten	-7387
▁hielt	-7388
▁rough	-7389
änderte	-7390
▁Rücken	-7391
▁Wunsch	-7392
▁nearly	-7393
▁reduce	-7394
▁Materie	-7395
▁endlich	-7396
▁extreme	-7397
▁seltsam	-7398
▁Insekten	-7399
▁Botschaft	-7400
▁diversity	-7401
▁efficient	-7402
▁conference	-7403
▁Durchschnitt	-7404
Un	-7405
Wenn	-7406
glie	-7407
frage	-7408
ratic	-7409
▁Jack	-7410
▁nütz	-7411
▁teen	-7412
▁seien	-7413
▁smell	-7414
auschen	-7415
▁10,000	-7416
▁easily	-7417
▁seemed	-7418
ulations	-7419
▁entlang	-7420
▁Soldaten	-7421
▁molecules	-7422
▁weiterhin	-7423
▁consciousness	-7424
mung	-7425
rupt	-7426
used	-7427
▁jün	-7428
bruch	-7429
▁Over	-7430
▁coff	-7431
schutz	-7432
▁auszu	-7433
▁Klasse	-7434
▁Norden	-7435
▁Thanks	-7436
▁satell	-7437
▁ancient	-7438
▁element	-7439
▁knowing	-7440
▁Korallen	-7441
▁studying	-7442
▁Wikipedia	-7443
▁Gesellschaften	-7444
kop	-7445
▁ut	-7446
eden	-7447
eler	-7448
load	-7449
rauch	-7450
right	-7451
volle	-7452
▁fühle	-7453
▁initi	-7454
▁Global	-7455
▁window	-7456
▁Begriff	-7457
▁degrees	-7458
▁dorthin	-7459
▁handeln	-7460
▁members	-7461
▁creatures	-7462
▁complexity	-7463
car	-7464
▁["	-7465
izen	-7466
lege	-7467
nden	-7468
stag	-7469
ware	-7470
▁nöt	-7471
▁tom	-7472
▁wis	-7473
alien	-7474
fälle	-7475
▁Holz	-7476
▁bomb	-7477
▁gilt	-7478
▁prep	-7479
▁sowie	-7480
▁Nichts	-7481
▁eating	-7482
▁iPhone	-7483
▁langen	-7484
▁Einsatz	-7485
▁Neuronen	-7486
▁Werkzeug	-7487
▁erlauben	-7488
▁stellten	-7489
▁Kilometer	-7490
▁produziert	-7491
▁significant	-7492
abt	-7493
bin	-7494
die	-7495
ruf	-7496
▁Las	-7497
▁afr	-7498
entle	-7499
house	-7500
ließt	-7501
light	-7502
setzt	-7503
▁Ganz	-7504
▁rare	-7505
▁tele	-7506
izität	-7507
▁Peter	-7508
▁Todes	-7509
▁kenne	-7510
▁schaut	-7511
ribution	-7512
▁UN	-7513
ober	-7514
▁Lat	-7515
antas	-7516
mögen	-7517
▁Loch	-7518
▁gele	-7519
▁none	-7520
anging	-7521
gramme	-7522
▁legen	-7523
▁shift	-7524
otograf	-7525
ssystem	-7526
▁engage	-7527
▁shares	-7528
▁switch	-7529
▁ändert	-7530
▁erstellen	-7531
▁Universums	-7532
1.	-7533
hö	-7534
opt	-7535
uum	-7536
kung	-7537
▁GPS	-7538
▁fle	-7539
▁Glas	-7540
▁Kein	-7541
▁bees	-7542
uments	-7543
mutlich	-7544
zubauen	-7545
änglich	-7546
▁genome	-7547
ationale	-7548
▁College	-7549
▁Diskuss	-7550
▁dagegen	-7551
erspektive	-7552
▁behandelt	-7553
▁einfacher	-7554
▁überzeugen	-7555
An	-7556
bie	-7557
kle	-7558
mmer	-7559
uild	-7560
▁20.	-7561
andid	-7562
based	-7563
haben	-7564
▁Seit	-7565
▁Szen	-7566
▁trag	-7567
gebaut	-7568
▁Beruf	-7569
▁cheap	-7570
▁email	-7571
▁neuer	-7572
▁weird	-7573
▁kostet	-7574
▁Ameisen	-7575
▁alleine	-7576
▁perfekt	-7577
▁entsteht	-7578
▁spending	-7579
▁ecosystem	-7580
▁philosoph	-7581
▁Temperatur	-7582
ola	-7583
angt	-7584
chem	-7585
king	-7586
üben	-7587
▁Spr	-7588
ätsel	-7589
▁Take	-7590
▁join	-7591
ording	-7592
▁Stein	-7593
▁gaben	-7594
▁künst	-7595
▁nehme	-7596
stronom	-7597
▁Middle	-7598
▁ganzes	-7599
▁physic	-7600
▁therap	-7601
▁vulner	-7602
▁Plastik	-7603
▁Version	-7604
▁Zentrum	-7605
▁identity	-7606
▁Präsident	-7607
▁erforschen	-7608
▁imagination	-7609
▁Zusammenarbeit	-7610
ded	-7611
orb	-7612
ses	-7613
cell	-7614
ieso	-7615
teln	-7616
urop	-7617
▁Wal	-7618
▁san	-7619
asion	-7620
markt	-7621
▁agree	-7622
▁buchst	-7623
▁demand	-7624
isierten	-7625
▁devices	-7626
▁entschied	-7627
▁Komplexität	-7628
▁Zusammenhang	-7629
het	-7630
oom	-7631
orgt	-7632
▁Kop	-7633
▁Sen	-7634
losen	-7635
▁Sche	-7636
▁disk	-7637
▁1,000	-7638
▁Virus	-7639
▁Ziele	-7640
▁giant	-7641
▁visit	-7642
▁Karten	-7643
▁photos	-7644
▁presen	-7645
▁sexual	-7646
▁begeister	-7647
▁benötigen	-7648
▁landscape	-7649
▁Ausbildung	-7650
▁fascinating	-7651
▁Unterstützung	-7652
cel	-7653
det	-7654
▁Feld	-7655
▁Heil	-7656
▁Proz	-7657
▁Trad	-7658
▁boat	-7659
▁darf	-7660
▁enth	-7661
aining	-7662
formen	-7663
ährung	-7664
▁Babys	-7665
▁Inform	-7666
▁Jugend	-7667
▁Kohlen	-7668
▁Result	-7669
▁effort	-7670
▁epidem	-7671
▁erhält	-7672
▁lights	-7673
▁Zeichen	-7674
▁hearing	-7675
▁sharing	-7676
▁tremendous	-7677
▁Intelligenz	-7678
▁ep	-7679
▁sü	-7680
▁dom	-7681
▁unw	-7682
usive	-7683
▁Tanz	-7684
▁bloß	-7685
▁hero	-7686
▁Typen	-7687
▁fully	-7688
▁gross	-7689
▁cooper	-7690
istische	-7691
▁focused	-7692
▁verkauft	-7693
▁interpret	-7694
▁verursacht	-7695
▁opportunities	-7696
▁CE	-7697
verb	-7698
ügel	-7699
▁pig	-7700
beweg	-7701
icket	-7702
▁heav	-7703
▁vari	-7704
afrika	-7705
▁avoid	-7706
▁davor	-7707
▁pleas	-7708
▁unbed	-7709
▁batter	-7710
▁breast	-7711
▁einsch	-7712
▁mission	-7713
▁Aufgaben	-7714
▁addition	-7715
▁Vertrauen	-7716
▁commercial	-7717
▁Bedingungen	-7718
▁investieren	-7719
la	-7720
500	-7721
van	-7722
▁eg	-7723
reci	-7724
▁saß	-7725
verse	-7726
▁Satz	-7727
▁poem	-7728
wirken	-7729
▁Autor	-7730
▁Kontakt	-7731
▁Science	-7732
▁Sekunde	-7733
▁forever	-7734
▁schafft	-7735
▁betrifft	-7736
▁Professor	-7737
▁überzeugt	-7738
▁entwickelten	-7739
▁kommunizieren	-7740
hung	-7741
obel	-7742
▁Zur	-7743
quenz	-7744
swert	-7745
ugier	-7746
▁Jede	-7747
▁Klima	-7748
▁enter	-7749
zeichen	-7750
▁Kunden	-7751
▁victim	-7752
entlicht	-7753
▁artists	-7754
▁turning	-7755
▁Fernsehen	-7756
▁Depression	-7757
omm	-7758
änn	-7759
▁BG	-7760
cles	-7761
▁Rem	-7762
▁Golf	-7763
▁recy	-7764
▁tour	-7765
entwick	-7766
▁Sterne	-7767
▁Wandel	-7768
▁klingt	-7769
▁Objekte	-7770
▁letztes	-7771
▁umgehen	-7772
forschung	-7773
▁gewonnen	-7774
▁modernen	-7775
▁weiteres	-7776
▁Identität	-7777
▁Lieblings	-7778
▁Atmosphäre	-7779
▁phenomenon	-7780
ays	-7781
emb	-7782
far	-7783
pos	-7784
tle	-7785
angs	-7786
unte	-7787
▁Air	-7788
▁Tun	-7789
▁Gest	-7790
▁erfü	-7791
▁gros	-7792
▁stem	-7793
▁zent	-7794
▁disor	-7795
▁könnt	-7796
klärung	-7797
▁desert	-7798
▁passed	-7799
▁streng	-7800
▁Niemand	-7801
▁failure	-7802
▁moments	-7803
▁Actually	-7804
▁Qualität	-7805
▁alternative	-7806
igur	-7807
know	-7808
spir	-7809
▁Lar	-7810
▁Mac	-7811
igend	-7812
ocken	-7813
print	-7814
▁Müll	-7815
▁core	-7816
▁sinn	-7817
führer	-7818
▁Statt	-7819
▁bread	-7820
▁digit	-7821
▁simpl	-7822
ivalent	-7823
▁coffee	-7824
▁fairly	-7825
▁infect	-7826
▁symmet	-7827
▁Schwier	-7828
▁Untersuch	-7829
▁verbreitet	-7830
▁beschreiben	-7831
▁veröffentlicht	-7832
iefe	-7833
üren	-7834
▁Bio	-7835
▁Haw	-7836
elesc	-7837
krebs	-7838
▁Fest	-7839
▁Volk	-7840
▁fash	-7841
▁habt	-7842
▁Schiff	-7843
▁ancest	-7844
▁aspect	-7845
▁brings	-7846
▁leider	-7847
▁resist	-7848
zwischen	-7849
▁Nahrungs	-7850
▁erinnert	-7851
▁Institute	-7852
▁gestalten	-7853
▁religious	-7854
▁unbedingt	-7855
▁possibility	-7856
▁Großbritannien	-7857
6,	-7858
ias	-7859
ros	-7860
äbe	-7861
▁Ho	-7862
ansen	-7863
schte	-7864
urcht	-7865
▁Fach	-7866
▁Hack	-7867
isible	-7868
▁Handy	-7869
▁Higgs	-7870
▁effiz	-7871
▁Sozial	-7872
▁bitten	-7873
▁clever	-7874
▁dreams	-7875
▁sculpt	-7876
▁British	-7877
▁Gesetze	-7878
▁buchstä	-7879
▁farmers	-7880
▁geführt	-7881
▁steigen	-7882
▁Gemeinde	-7883
▁benefits	-7884
▁leadership	-7885
▁structures	-7886
▁Hintergrund	-7887
na	-7888
aos	-7889
ety	-7890
Okay	-7891
aler	-7892
hört	-7893
iche	-7894
lymp	-7895
▁Bur	-7896
appen	-7897
athan	-7898
etwas	-7899
krieg	-7900
▁Pers	-7901
▁puzz	-7902
abetes	-7903
▁Child	-7904
▁helps	-7905
▁lucky	-7906
▁party	-7907
ography	-7908
▁events	-7909
▁lautet	-7910
▁Schmerz	-7911
▁virtual	-7912
▁accident	-7913
▁deutlich	-7914
▁metaphor	-7915
▁opposite	-7916
▁beschäftigt	-7917
▁Landwirtschaft	-7918
▁Organisationen	-7919
oe	-7920
Sie	-7921
▁Ac	-7922
renz	-7923
▁Ros	-7924
▁gun	-7925
▁hau	-7926
▁zuk	-7927
ungsf	-7928
▁exer	-7929
▁mort	-7930
▁note	-7931
antage	-7932
▁Affen	-7933
▁Stoff	-7934
▁spiel	-7935
▁selber	-7936
▁signal	-7937
▁Einfach	-7938
▁counter	-7939
▁foreign	-7940
▁partners	-7941
▁wunderschön	-7942
▁herausgefunden	-7943
osis	-7944
werte	-7945
zweif	-7946
▁Sein	-7947
▁eure	-7948
ördern	-7949
▁Basis	-7950
▁Zusch	-7951
▁mouth	-7952
▁Fällen	-7953
▁Schimp	-7954
▁Spiele	-7955
▁gentle	-7956
▁yellow	-7957
▁Patient	-7958
▁Spielen	-7959
▁despite	-7960
ification	-7961
ständlich	-7962
▁Kindheit	-7963
▁Zweitens	-7964
▁brilliant	-7965
▁definition	-7966
PA	-7967
ka	-7968
izz	-7969
pfl	-7970
ris	-7971
tels	-7972
well	-7973
▁joy	-7974
aters	-7975
▁2008	-7976
▁Abst	-7977
▁Fund	-7978
▁Stär	-7979
▁nutz	-7980
▁ship	-7981
▁Vogel	-7982
▁names	-7983
▁tolle	-7984
▁Martin	-7985
▁gewöhn	-7986
▁glaubt	-7987
▁oceans	-7988
▁balance	-7989
▁leading	-7990
▁rechten	-7991
▁Forscher	-7992
▁dieselbe	-7993
▁verdienen	-7994
▁vermutlich	-7995
▁vollkommen	-7996
▁250	-7997
chnen	-7998
frist	-7999
halte	-8000
schlä	-8001
zelle	-8002
▁Kann	-8003
▁Ghana	-8004
▁Masse	-8005
▁prior	-8006
▁tough	-8007
istence	-8008
▁Mexico	-8009
▁easier	-8010
▁sorgen	-8011
▁zukünft	-8012
▁describe	-8013
▁eingesch	-8014
▁wiederum	-8015
▁Konferenz	-8016
▁particles	-8017
dimensional	-8018
2-	-8019
Don	-8020
▁27	-8021
▁Wü	-8022
soft	-8023
tert	-8024
anner	-8025
etten	-8026
hnten	-8027
iefen	-8028
▁Drei	-8029
▁ausl	-8030
▁held	-8031
▁spot	-8032
ending	-8033
fallen	-8034
kehren	-8035
▁Anges	-8036
▁Liter	-8037
▁Willi	-8038
▁coast	-8039
zusehen	-8040
▁Nutzen	-8041
▁Valley	-8042
▁drehen	-8043
▁magnet	-8044
▁notion	-8045
▁raised	-8046
▁schöne	-8047
▁verwir	-8048
▁Polizei	-8049
▁anderem	-8050
▁fashion	-8051
▁figured	-8052
▁regular	-8053
▁stecken	-8054
▁weapons	-8055
istischen	-8056
▁Großteil	-8057
▁außerdem	-8058
▁erwartet	-8059
▁rational	-8060
▁übertragen	-8061
ani	-8062
bur	-8063
iop	-8064
▁Vö	-8065
emen	-8066
fält	-8067
pper	-8068
▁tox	-8069
▁jung	-8070
▁magn	-8071
▁repe	-8072
oppelt	-8073
▁Laden	-8074
▁Mobil	-8075
▁condu	-8076
▁sorry	-8077
gewicht	-8078
setzung	-8079
wechsel	-8080
▁Heimat	-8081
▁Satell	-8082
▁benötigt	-8083
▁besitzen	-8084
▁entirely	-8085
▁Problemen	-8086
▁suffering	-8087
▁responsible	-8088
▁durchgeführt	-8089
60	-8090
ua	-8091
apie	-8092
phen	-8093
stab	-8094
▁Cam	-8095
▁usw	-8096
eline	-8097
▁Asia	-8098
▁Graf	-8099
▁Lern	-8100
▁Open	-8101
▁abzu	-8102
▁mamm	-8103
▁mill	-8104
▁wood	-8105
idents	-8106
▁Obama	-8107
▁bound	-8108
▁Fische	-8109
▁French	-8110
▁origin	-8111
▁tissue	-8112
▁definit	-8113
▁require	-8114
▁bezahlen	-8115
▁importantly	-8116
▁buchstäblich	-8117
ky	-8118
aks	-8119
iox	-8120
ünf	-8121
This	-8122
cked	-8123
vity	-8124
▁Hil	-8125
▁lat	-8126
cting	-8127
▁Fabr	-8128
▁edge	-8129
jekten	-8130
▁Sorgen	-8131
▁haupts	-8132
▁hinweg	-8133
▁master	-8134
▁steckt	-8135
▁werfen	-8136
▁Bildern	-8137
▁Gründen	-8138
▁Mission	-8139
▁derzeit	-8140
▁fragten	-8141
ungskraft	-8142
▁billions	-8143
▁document	-8144
▁exponent	-8145
▁childhood	-8146
3,	-8147
Se	-8148
itzt	-8149
rale	-8150
▁Jer	-8151
▁Tur	-8152
▁shr	-8153
asche	-8154
bling	-8155
▁Janu	-8156
▁Verk	-8157
▁seed	-8158
▁vorh	-8159
▁Beine	-8160
▁Keine	-8161
▁claim	-8162
▁faith	-8163
▁sitzt	-8164
▁wirst	-8165
▁Themen	-8166
▁Zuerst	-8167
▁antwor	-8168
▁deeply	-8169
▁erstes	-8170
▁Gewicht	-8171
▁However	-8172
▁appreci	-8173
▁correct	-8174
▁identif	-8175
▁European	-8176
▁distance	-8177
▁previous	-8178
▁Milliarde	-8179
▁bestimmen	-8180
▁Bildschirm	-8181
▁natürliche	-8182
▁sicherlich	-8183
▁verwandeln	-8184
▁öffentlich	-8185
▁öffentliche	-8186
di	-8187
anst	-8188
ibel	-8189
ords	-8190
ties	-8191
▁Pra	-8192
▁Boot	-8193
▁Brot	-8194
▁accur	-8195
▁dreht	-8196
▁hohen	-8197
▁laugh	-8198
▁wohin	-8199
▁Gefahr	-8200
▁Stress	-8201
▁charge	-8202
▁lesson	-8203
richtung	-8204
▁Drittel	-8205
▁Modelle	-8206
▁kümmern	-8207
▁shouldn	-8208
▁täglich	-8209
▁elements	-8210
▁einsetzen	-8211
▁mindestens	-8212
üp	-8213
bas	-8214
iban	-8215
ötet	-8216
▁dur	-8217
agers	-8218
ckten	-8219
laden	-8220
▁Inst	-8221
▁Last	-8222
▁host	-8223
▁hung	-8224
ighten	-8225
inhalb	-8226
nissen	-8227
▁Egypt	-8228
▁Kaffe	-8229
▁grass	-8230
▁indic	-8231
▁proud	-8232
oration	-8233
▁bridge	-8234
▁dürfen	-8235
▁remote	-8236
▁versus	-8237
ifically	-8238
▁Führung	-8239
▁contact	-8240
▁matters	-8241
▁relevant	-8242
▁zufällig	-8243
inosaurier	-8244
▁Sometimes	-8245
▁entwerfen	-8246
▁Forschungs	-8247
▁necessarily	-8248
▁Lebensmittel	-8249
xis	-8250
▁Ox	-8251
eine	-8252
iest	-8253
onds	-8254
▁Ass	-8255
▁Dra	-8256
▁Emp	-8257
▁Log	-8258
▁ban	-8259
▁kit	-8260
ingly	-8261
▁Sehr	-8262
▁anti	-8263
▁forg	-8264
mother	-8265
zeiten	-8266
▁Haiti	-8267
▁Treib	-8268
▁leads	-8269
meister	-8270
▁adults	-8271
▁corpor	-8272
▁pounds	-8273
▁Kontext	-8274
▁Verkehr	-8275
▁concent	-8276
▁illegal	-8277
▁insects	-8278
▁kompliz	-8279
▁gelangen	-8280
▁sozusagen	-8281
▁background	-8282
ita	-8283
▁II	-8284
▁ru	-8285
gern	-8286
ifen	-8287
pted	-8288
unkl	-8289
vere	-8290
▁Ach	-8291
▁Did	-8292
▁Mad	-8293
▁mor	-8294
▁pet	-8295
chern	-8296
etter	-8297
sagen	-8298
▁Irak	-8299
▁Link	-8300
▁emot	-8301
▁halb	-8302
▁iron	-8303
▁plus	-8304
laufen	-8305
pected	-8306
▁hängt	-8307
▁quote	-8308
▁Island	-8309
▁opened	-8310
▁romant	-8311
jährigen	-8312
▁Wichtig	-8313
▁abgesch	-8314
▁ausgest	-8315
▁studied	-8316
▁Kaliforn	-8317
▁scheinen	-8318
▁tausende	-8319
▁Microsoft	-8320
▁allgemein	-8321
▁necessary	-8322
▁repräsent	-8323
▁Strukturen	-8324
▁ultimately	-8325
▁Öffentlich	-8326
▁competition	-8327
Du	-8328
ota	-8329
oler	-8330
▁Inn	-8331
▁Sar	-8332
▁dou	-8333
esign	-8334
fisch	-8335
▁bird	-8336
▁läch	-8337
ulated	-8338
▁Falls	-8339
▁Staat	-8340
▁eröff	-8341
▁offer	-8342
sichtig	-8343
▁General	-8344
▁holding	-8345
▁succeed	-8346
ibilities	-8347
ikanische	-8348
▁Bildungs	-8349
▁Teilchen	-8350
▁designer	-8351
▁fighting	-8352
▁discovery	-8353
▁interagieren	-8354
▁Institutionen	-8355
.'	-8356
arr	-8357
gro	-8358
▁Kä	-8359
care	-8360
sens	-8361
▁daß	-8362
▁mig	-8363
icted	-8364
itete	-8365
ulous	-8366
▁Jeff	-8367
▁Very	-8368
tended	-8369
▁compl	-8370
▁stolz	-8371
▁töten	-8372
▁wheel	-8373
▁Änder	-8374
▁Geräte	-8375
▁Rahmen	-8376
▁beteil	-8377
▁colors	-8378
▁convin	-8379
▁failed	-8380
▁flight	-8381
▁lieber	-8382
▁religi	-8383
▁Leistung	-8384
▁Sprachen	-8385
▁Wahrnehm	-8386
▁separate	-8387
▁Erinnerung	-8388
▁investment	-8389
len	-8390
athy	-8391
ilde	-8392
roph	-8393
illed	-8394
▁Once	-8395
▁Sind	-8396
▁auth	-8397
▁pair	-8398
▁Carol	-8399
▁Seine	-8400
▁broad	-8401
▁cloud	-8402
▁gebra	-8403
gesehen	-8404
steller	-8405
▁hidden	-8406
▁sector	-8407
▁wächst	-8408
▁falsche	-8409
▁traffic	-8410
▁Konflikt	-8411
▁Charakter	-8412
▁verfolgen	-8413
esentlichen	-8414
▁gefährlich	-8415
▁irgendwann	-8416
▁vollständig	-8417
Der	-8418
ipe	-8419
apse	-8420
wide	-8421
▁Bob	-8422
▁Deb	-8423
▁Kal	-8424
▁reb	-8425
ffekt	-8426
isher	-8427
▁Führ	-8428
▁Metap	-8429
atively	-8430
jährige	-8431
▁aussch	-8432
ausenden	-8433
▁husband	-8434
▁believed	-8435
▁besseren	-8436
▁intellect	-8437
▁verhindern	-8438
▁wunderbare	-8439
▁überrascht	-8440
5.	-8441
enty	-8442
icke	-8443
oret	-8444
▁Tim	-8445
▁pun	-8446
▁ter	-8447
eared	-8448
▁Arch	-8449
▁Chir	-8450
▁Eing	-8451
▁Maus	-8452
▁purs	-8453
atoren	-8454
▁Solar	-8455
▁embra	-8456
▁exhib	-8457
▁faces	-8458
▁river	-8459
▁stuck	-8460
▁Mechan	-8461
▁contra	-8462
▁dollar	-8463
▁narrat	-8464
▁Emotion	-8465
▁destroy	-8466
▁related	-8467
▁platform	-8468
▁surprise	-8469
▁weiteren	-8470
▁influence	-8471
▁schließen	-8472
▁professional	-8473
▁möglicherweise	-8474
Ar	-8475
öpf	-8476
▁Sy	-8477
kton	-8478
▁Cor	-8479
▁Mod	-8480
hafte	-8481
uries	-8482
▁1950	-8483
ilosop	-8484
werten	-8485
▁Außen	-8486
▁mouse	-8487
▁moves	-8488
▁newsp	-8489
▁truck	-8490
▁weder	-8491
ampagne	-8492
▁erweit	-8493
▁finanz	-8494
▁letter	-8495
▁testen	-8496
▁nächstes	-8497
▁zunehmen	-8498
▁Gegenteil	-8499
▁concerned	-8500
▁gegenseit	-8501
▁depression	-8502
▁überraschen	-8503
▁unfortunately	-8504
AR	-8505
tr	-8506
olph	-8507
prob	-8508
teid	-8509
▁Law	-8510
ausch	-8511
inkel	-8512
utzer	-8513
▁Bett	-8514
▁Sing	-8515
▁lies	-8516
itness	-8517
▁Genom	-8518
▁click	-8519
▁krank	-8520
▁weiss	-8521
▁Häuser	-8522
▁Nation	-8523
▁caught	-8524
▁getötet	-8525
▁illustr	-8526
▁leaving	-8527
▁finanzie	-8528
▁independ	-8529
▁president	-8530
▁Kohlenstoff	-8531
▁letztendlich	-8532
rol	-8533
set	-8534
▁DH	-8535
geln	-8536
sinn	-8537
udes	-8538
wahl	-8539
▁Jon	-8540
▁Nan	-8541
▁Off	-8542
▁Pan	-8543
arent	-8544
idung	-8545
orrow	-8546
▁Ecke	-8547
▁Fünf	-8548
▁myth	-8549
▁Apple	-8550
▁Filme	-8551
▁Jungs	-8552
▁Mount	-8553
▁Smith	-8554
▁begeg	-8555
▁crash	-8556
▁walls	-8557
ometers	-8558
ächtnis	-8559
▁bieten	-8560
▁degree	-8561
▁detail	-8562
▁kurzen	-8563
▁mitten	-8564
▁wisdom	-8565
uationen	-8566
▁acceler	-8567
▁benefit	-8568
▁justice	-8569
▁Außerdem	-8570
▁Galaxien	-8571
▁Verstand	-8572
▁prototyp	-8573
▁verbracht	-8574
möglichkeit	-8575
▁begeistert	-8576
▁university	-8577
▁hauptsächlich	-8578
igm	-8579
xim	-8580
best	-8581
läuf	-8582
prof	-8583
sing	-8584
yram	-8585
▁Aug	-8586
ialog	-8587
▁Code	-8588
▁Frem	-8589
▁Have	-8590
▁Manh	-8591
▁arch	-8592
▁exch	-8593
▁hate	-8594
▁weib	-8595
iminal	-8596
▁Defin	-8597
▁Motor	-8598
▁alter	-8599
▁homes	-8600
▁ideal	-8601
▁noise	-8602
issions	-8603
▁begins	-8604
▁gesund	-8605
▁parent	-8606
▁slowly	-8607
▁Fleisch	-8608
▁sequence	-8609
▁collective	-8610
▁eingesetzt	-8611
ädt	-8612
eper	-8613
wegs	-8614
ößen	-8615
▁Akt	-8616
▁cro	-8617
amour	-8618
inson	-8619
ippen	-8620
riage	-8621
▁TEDx	-8622
▁band	-8623
▁Kohle	-8624
▁anges	-8625
▁angew	-8626
▁argue	-8627
▁halte	-8628
▁paint	-8629
▁resol	-8630
▁setzt	-8631
▁Bauern	-8632
▁Rätsel	-8633
▁garden	-8634
esterday	-8635
▁protein	-8636
▁creation	-8637
▁strategy	-8638
▁principles	-8639
▁Dinosaurier	-8640
▁mathematics	-8641
▁interessieren	-8642
Talk	-8643
oben	-8644
▁tit	-8645
▁tue	-8646
▁ält	-8647
auern	-8648
itzer	-8649
ordin	-8650
▁Bras	-8651
▁ants	-8652
igsten	-8653
wissen	-8654
▁Dabei	-8655
▁Spekt	-8656
▁coral	-8657
▁equal	-8658
▁kurze	-8659
hältnis	-8660
▁Meilen	-8661
▁expert	-8662
▁phones	-8663
▁Stimmen	-8664
▁Verletz	-8665
▁capable	-8666
▁Elektron	-8667
▁Experten	-8668
▁Gespräch	-8669
▁Stanford	-8670
▁compared	-8671
▁emotions	-8672
▁everyday	-8673
▁fotograf	-8674
▁investig	-8675
▁strength	-8676
richtungen	-8677
▁Katastrop	-8678
▁vorhanden	-8679
▁constantly	-8680
▁wichtigste	-8681
▁Öffentlichkeit	-8682
Os	-8683
läss	-8684
▁Fel	-8685
▁sac	-8686
▁Flor	-8687
▁bone	-8688
▁flie	-8689
▁hohe	-8690
▁moon	-8691
▁seat	-8692
heimer	-8693
hrough	-8694
▁Elektr	-8695
▁Gewebe	-8696
▁Republ	-8697
▁closed	-8698
▁deinen	-8699
▁gehabt	-8700
▁reward	-8701
▁thinks	-8702
illionen	-8703
maschine	-8704
▁basiert	-8705
▁bemerkt	-8706
▁display	-8707
▁reprodu	-8708
▁typical	-8709
▁Standard	-8710
▁Aktivität	-8711
▁invisible	-8712
▁versuchten	-8713
▁amerikanische	-8714
aßen	-8715
bahn	-8716
▁Hal	-8717
▁Nar	-8718
▁Rat	-8719
▁Sur	-8720
▁era	-8721
▁kap	-8722
▁prä	-8723
allel	-8724
asten	-8725
krank	-8726
letzt	-8727
pielt	-8728
ropri	-8729
unken	-8730
▁Beob	-8731
▁Bush	-8732
▁Lied	-8733
▁Phot	-8734
agiert	-8735
weiten	-8736
▁Brenn	-8737
▁Stift	-8738
▁hyper	-8739
▁nutzt	-8740
▁starb	-8741
▁budget	-8742
▁manage	-8743
▁museum	-8744
▁Deutsch	-8745
▁gewisse	-8746
▁managed	-8747
▁quantum	-8748
▁trained	-8749
▁feedback	-8750
▁majority	-8751
▁disappear	-8752
▁engineers	-8753
▁interaction	-8754
▁civilization	-8755
ko	-8756
yer	-8757
anth	-8758
otic	-8759
▁bie	-8760
▁emb	-8761
▁fab	-8762
andem	-8763
geber	-8764
ischt	-8765
owers	-8766
▁Rock	-8767
▁Schn	-8768
▁opin	-8769
▁Count	-8770
▁Folge	-8771
▁frage	-8772
▁grown	-8773
▁polic	-8774
▁reform	-8775
▁factory	-8776
▁volunte	-8777
▁wenigen	-8778
▁Algorith	-8779
▁finished	-8780
▁described	-8781
▁operating	-8782
▁organisms	-8783
▁otherwise	-8784
▁Unternehmer	-8785
obe	-8786
rip	-8787
uel	-8788
olit	-8789
ynth	-8790
▁Ehe	-8791
▁Ill	-8792
▁row	-8793
alent	-8794
apers	-8795
ength	-8796
macht	-8797
throp	-8798
ängst	-8799
▁Dunk	-8800
▁Kapit	-8801
▁Nobel	-8802
▁Start	-8803
▁lebte	-8804
ributed	-8805
▁Händen	-8806
▁sister	-8807
▁Project	-8808
▁einiger	-8809
▁schönen	-8810
zubringen	-8811
▁followed	-8812
▁advantage	-8813
▁classroom	-8814
▁entworfen	-8815
▁praktisch	-8816
▁verantwortlich	-8817
▁unterschiedlich	-8818
If	-8819
Nun	-8820
tte	-8821
▁ju	-8822
alog	-8823
loss	-8824
▁21.	-8825
▁Ins	-8826
▁spl	-8827
▁ten	-8828
craft	-8829
ipped	-8830
known	-8831
▁Dere	-8832
▁aufw	-8833
▁Laufe	-8834
▁climb	-8835
▁klass	-8836
▁surge	-8837
▁attach	-8838
▁desire	-8839
▁erster	-8840
▁gering	-8841
▁paying	-8842
▁toward	-8843
▁Militär	-8844
▁erzähle	-8845
▁worried	-8846
▁normalen	-8847
▁untersucht	-8848
▁Experimente	-8849
▁Interaktion	-8850
▁Schimpansen	-8851
cil	-8852
hte	-8853
ardo	-8854
inkt	-8855
▁Ans	-8856
▁Dok	-8857
drück	-8858
scher	-8859
uster	-8860
▁Mund	-8861
▁gäbe	-8862
▁king	-8863
▁meat	-8864
ischem	-8865
▁Olymp	-8866
▁brief	-8867
▁somit	-8868
▁users	-8869
▁nannte	-8870
▁stelle	-8871
▁Manhatt	-8872
▁artific	-8873
önlichkeit	-8874
▁perfectly	-8875
▁wichtigen	-8876
▁Erkenntnis	-8877
▁businesses	-8878
▁Perspektive	-8879
▁beantworten	-8880
▁consumption	-8881
▁unterscheiden	-8882
inc	-8883
▁Ug	-8884
aped	-8885
gabe	-8886
iate	-8887
keln	-8888
▁Nov	-8889
adies	-8890
agram	-8891
aming	-8892
▁Star	-8893
▁earn	-8894
▁herr	-8895
▁roof	-8896
▁Found	-8897
▁Trotz	-8898
▁Zeich	-8899
▁holen	-8900
▁kennt	-8901
▁verbl	-8902
uations	-8903
▁Folgen	-8904
▁Toilet	-8905
▁dauert	-8906
▁finger	-8907
▁verein	-8908
▁meistens	-8909
▁Australia	-8910
▁surprised	-8911
▁arbeiteten	-8912
▁Kalifornien	-8913
▁irgendetwas	-8914
▁kompliziert	-8915
NS	-8916
har	-8917
▁65	-8918
aked	-8919
pass	-8920
▁Gas	-8921
▁Rot	-8922
▁ton	-8923
acher	-8924
rippe	-8925
▁hasn	-8926
▁puts	-8927
▁schm	-8928
▁wear	-8929
▁whom	-8930
schule	-8931
uliert	-8932
▁Beste	-8933
▁Neben	-8934
▁Texas	-8935
▁Three	-8936
▁immun	-8937
▁lernt	-8938
▁veget	-8939
ystemen	-8940
▁Haufen	-8941
▁bright	-8942
▁harder	-8943
▁Gehirne	-8944
▁dennoch	-8945
▁empower	-8946
▁Audience	-8947
▁Nationen	-8948
▁gehalten	-8949
▁hunderte	-8950
▁Wettbewer	-8951
▁schlimmer	-8952
▁allerdings	-8953
▁entstanden	-8954
4.	-8955
han	-8956
hmt	-8957
üst	-8958
▁Cy	-8959
▁La	-8960
aled	-8961
osion	-8962
place	-8963
▁2007	-8964
▁Does	-8965
▁Vide	-8966
▁zeit	-8967
immung	-8968
stream	-8969
▁Innen	-8970
▁Klang	-8971
▁Momen	-8972
▁Radio	-8973
▁contr	-8974
▁eleph	-8975
▁heads	-8976
▁quiet	-8977
▁wahre	-8978
▁Mütter	-8979
▁Planet	-8980
▁Zimmer	-8981
▁leader	-8982
▁Elektro	-8983
▁Gedanke	-8984
▁weather	-8985
blichkeit	-8986
▁galaxies	-8987
▁magazine	-8988
▁soldiers	-8989
▁Folgendes	-8990
▁Politiker	-8991
▁currently	-8992
▁languages	-8993
▁Individuen	-8994
▁Landschaft	-8995
▁beeindruck	-8996
▁existieren	-8997
ete	-8998
nel	-8999
▁Ap	-9000
cast	-9001
iors	-9002
life	-9003
oted	-9004
▁195	-9005
▁mel	-9006
▁unl	-9007
▁Span	-9008
▁bull	-9009
▁empt	-9010
▁fiel	-9011
▁soil	-9012
ipment	-9013
mutter	-9014
▁Ihres	-9015
▁Kenya	-9016
▁attem	-9017
▁Bruder	-9018
▁ausgeb	-9019
▁linken	-9020
▁schien	-9021
▁fördern	-9022
▁limited	-9023
▁schaute	-9024
▁treated	-9025
▁Tausende	-9026
▁aufhören	-9027
▁multiple	-9028
▁planning	-9029
▁suggests	-9030
▁Schwester	-9031
▁angesehen	-9032
▁mentioned	-9033
▁seriously	-9034
▁universal	-9035
ait	-9036
kom	-9037
äum	-9038
▁22	-9039
avig	-9040
lieb	-9041
schm	-9042
▁Dad	-9043
▁Eig	-9044
▁Hör	-9045
▁due	-9046
▁pal	-9047
▁Each	-9048
▁Samm	-9049
▁beat	-9050
▁dran	-9051
▁fold	-9052
▁stup	-9053
bracht	-9054
person	-9055
▁Bitte	-9056
▁categ	-9057
▁cycle	-9058
▁lunch	-9059
▁regel	-9060
▁traur	-9061
bewesen	-9062
▁Obwohl	-9063
▁driver	-9064
▁galaxy	-9065
▁incent	-9066
▁stabil	-9067
▁Quadrat	-9068
▁depress	-9069
▁mothers	-9070
▁station	-9071
▁watched	-9072
▁wearing	-9073
▁Moleküle	-9074
▁demokrat	-9075
▁erkannte	-9076
▁received	-9077
▁Entdeckung	-9078
▁entspricht	-9079
80	-9080
sl	-9081
ctic	-9082
enkt	-9083
iano	-9084
wärt	-9085
▁anz	-9086
▁cam	-9087
▁mos	-9088
schau	-9089
teuer	-9090
▁Sens	-9091
▁agre	-9092
▁arms	-9093
▁bear	-9094
fragen	-9095
▁Reich	-9096
▁Would	-9097
▁fresh	-9098
▁instr	-9099
▁limit	-9100
▁wieso	-9101
▁Fakten	-9102
▁Kräfte	-9103
▁belong	-9104
▁benutz	-9105
▁circle	-9106
▁debate	-9107
▁diskut	-9108
▁string	-9109
▁100,000	-9110
▁Körpers	-9111
▁Spiegel	-9112
▁bekamen	-9113
▁curious	-9114
▁nochmal	-9115
▁vehicle	-9116
▁Mikroben	-9117
▁Bewegungen	-9118
▁equivalent	-9119
▁grandmother	-9120
▁medizinische	-9121
ca	-9122
▁Ol	-9123
▁PM	-9124
oons	-9125
▁Pre	-9126
▁dry	-9127
▁gre	-9128
▁zog	-9129
aufte	-9130
▁Ange	-9131
▁Dass	-9132
▁drag	-9133
gewalt	-9134
ipping	-9135
▁Erleb	-9136
▁natur	-9137
▁Andere	-9138
▁Effekt	-9139
▁Wellen	-9140
▁belief	-9141
▁erlebt	-9142
▁ließen	-9143
▁Zuhause	-9144
▁dritten	-9145
▁invited	-9146
▁partner	-9147
▁Eindruck	-9148
▁Gegensatz	-9149
▁Manhattan	-9150
▁economics	-9151
▁statistics	-9152
▁wesentlich	-9153
wissenschaft	-9154
▁agriculture	-9155
▁hoffentlich	-9156
▁consequences	-9157
asi	-9158
ifik	-9159
rett	-9160
wich	-9161
▁Pac	-9162
▁Pfl	-9163
▁Ven	-9164
▁tag	-9165
itung	-9166
plane	-9167
power	-9168
▁1990	-9169
▁Budd	-9170
▁Fett	-9171
▁Orig	-9172
hängig	-9173
ushing	-9174
▁musst	-9175
▁teuer	-9176
▁versp	-9177
▁Grenze	-9178
▁Irgend	-9179
▁echten	-9180
▁shapes	-9181
▁starke	-9182
▁unless	-9183
▁Nachdem	-9184
▁married	-9185
▁normale	-9186
▁Methoden	-9187
▁erfinden	-9188
▁molecule	-9189
▁ordinary	-9190
▁survival	-9191
▁ungewöhn	-9192
▁continent	-9193
▁instrument	-9194
▁entwickelte	-9195
▁hergestellt	-9196
▁interessanter	-9197
▁“	-9198
▁'9	-9199
adel	-9200
mitt	-9201
▁Bal	-9202
▁Joe	-9203
▁Net	-9204
▁Ple	-9205
▁rat	-9206
cking	-9207
itude	-9208
▁Hins	-9209
▁Mess	-9210
▁Säug	-9211
▁aufs	-9212
▁coal	-9213
▁gesp	-9214
▁reef	-9215
▁vacc	-9216
▁pages	-9217
▁plane	-9218
▁trägt	-9219
fassung	-9220
glieder	-9221
reitung	-9222
▁Minute	-9223
▁Oxford	-9224
▁breath	-9225
▁fourth	-9226
schlagen	-9227
▁Gleiche	-9228
▁illness	-9229
▁spannen	-9230
▁launched	-9231
▁Everybody	-9232
▁persönlich	-9233
▁reduzieren	-9234
▁increasingly	-9235
▁persönlichen	-9236
BI	-9237
box	-9238
gyp	-9239
utt	-9240
akte	-9241
atom	-9242
fung	-9243
herr	-9244
▁Eng	-9245
▁Top	-9246
▁Beim	-9247
▁Ever	-9248
▁Mass	-9249
aschen	-9250
gruppe	-9251
nitten	-9252
onomen	-9253
▁Ganze	-9254
▁Jeden	-9255
▁Krise	-9256
▁crime	-9257
tential	-9258
▁Beweis	-9259
▁Kontin	-9260
▁Uganda	-9261
▁aufgew	-9262
▁exists	-9263
▁hoffen	-9264
▁implic	-9265
▁müsste	-9266
▁schick	-9267
▁stammt	-9268
▁vieler	-9269
▁beinhal	-9270
▁drawing	-9271
▁highest	-9272
▁schwarz	-9273
▁Arbeiten	-9274
▁effizient	-9275
▁entscheid	-9276
▁equipment	-9277
▁vergleichen	-9278
▁Gesundheitsw	-9279
"]	-9280
hh	-9281
▁ap	-9282
gien	-9283
iern	-9284
ifer	-9285
▁Alz	-9286
▁sum	-9287
▁van	-9288
bares	-9289
emble	-9290
leren	-9291
tocin	-9292
▁Brun	-9293
▁Eben	-9294
▁wave	-9295
anders	-9296
▁chann	-9297
▁roten	-9298
▁sites	-9299
▁steps	-9300
▁Steuer	-9301
▁Yorker	-9302
▁dinner	-9303
▁gender	-9304
▁zahlen	-9305
▁testing	-9306
▁brachten	-9307
▁struggle	-9308
▁cognitive	-9309
▁generations	-9310
So	-9311
eme	-9312
ibe	-9313
▁26	-9314
▁Cr	-9315
andt	-9316
comp	-9317
engu	-9318
ocks	-9319
stud	-9320
zing	-9321
äuse	-9322
▁Jim	-9323
ähren	-9324
▁1980	-9325
▁Pres	-9326
▁engl	-9327
▁gold	-9328
▁intu	-9329
▁scen	-9330
▁Etwas	-9331
▁Other	-9332
ordnung	-9333
▁Rechte	-9334
▁academ	-9335
▁lustig	-9336
▁gestern	-9337
▁nervous	-9338
▁warming	-9339
▁aufbauen	-9340
▁identify	-9341
▁existence	-9342
▁Augenblick	-9343
▁Satelliten	-9344
▁persönliche	-9345
ader	-9346
elly	-9347
rete	-9348
▁Sir	-9349
▁gig	-9350
istor	-9351
oster	-9352
▁Eric	-9353
▁Flag	-9354
▁Gras	-9355
▁Impf	-9356
▁Tour	-9357
▁beis	-9358
▁umge	-9359
▁vere	-9360
ondere	-9361
▁daily	-9362
▁lifet	-9363
▁novel	-9364
▁rural	-9365
fordert	-9366
zentrum	-9367
▁10.000	-9368
▁losing	-9369
▁motion	-9370
▁perman	-9371
▁stupid	-9372
▁Theater	-9373
▁bezahlt	-9374
▁eindeut	-9375
▁gelesen	-9376
▁organic	-9377
▁players	-9378
▁relativ	-9379
▁welchen	-9380
▁Hinsicht	-9381
▁effektiv	-9382
▁engineer	-9383
▁normally	-9384
▁resource	-9385
▁Alzheimer	-9386
▁Gemeinden	-9387
▁brauchten	-9388
▁verbrachte	-9389
▁Generationen	-9390
kept	-9391
sage	-9392
thal	-9393
wach	-9394
▁Hor	-9395
▁SMS	-9396
izont	-9397
mäßig	-9398
ologe	-9399
▁Pfer	-9400
▁Wild	-9401
▁cosm	-9402
▁tail	-9403
▁unex	-9404
▁Human	-9405
▁State	-9406
▁Titan	-9407
▁dolph	-9408
▁round	-9409
iologen	-9410
ologist	-9411
▁Zucker	-9412
▁verlie	-9413
zusetzen	-9414
▁Germany	-9415
▁Vorteil	-9416
▁privile	-9417
▁setting	-9418
▁tausend	-9419
▁wechsel	-9420
▁microbes	-9421
▁schlagen	-9422
▁Netzwerke	-9423
▁hopefully	-9424
▁principle	-9425
▁processes	-9426
▁Eigentlich	-9427
▁Foundation	-9428
▁erscheinen	-9429
Pl	-9430
aj	-9431
can	-9432
hek	-9433
down	-9434
▁Hem	-9435
▁gap	-9436
rehen	-9437
zieht	-9438
▁1960	-9439
▁beit	-9440
▁männ	-9441
▁rück	-9442
▁soph	-9443
atures	-9444
ifying	-9445
merzen	-9446
vollen	-9447
werden	-9448
▁2,000	-9449
▁Armen	-9450
▁Gates	-9451
▁Milch	-9452
▁Viren	-9453
▁facts	-9454
▁grade	-9455
▁north	-9456
▁wobei	-9457
▁Buchst	-9458
▁Garten	-9459
▁bietet	-9460
▁enable	-9461
▁filled	-9462
▁poetry	-9463
▁Ansicht	-9464
▁Details	-9465
▁article	-9466
▁brauche	-9467
▁entschl	-9468
▁theater	-9469
▁vorbere	-9470
imensions	-9471
▁Lebewesen	-9472
▁designing	-9473
▁verbindet	-9474
▁associated	-9475
▁corruption	-9476
▁inspiriert	-9477
▁kilometers	-9478
▁verbreiten	-9479
▁Wahrnehmung	-9480
▁beschlossen	-9481
▁comfortable	-9482
▁natürlichen	-9483
▁distribution	-9484
▁erstaunliche	-9485
▁transformation	-9486
▁32	-9487
▁af	-9488
acle	-9489
aust	-9490
iend	-9491
leid	-9492
obby	-9493
öpfe	-9494
▁11.	-9495
▁Cal	-9496
besch	-9497
estic	-9498
▁Echt	-9499
▁Elef	-9500
▁date	-9501
▁pure	-9502
▁trip	-9503
ibrary	-9504
plomat	-9505
▁Could	-9506
▁Stock	-9507
▁angeb	-9508
▁einst	-9509
▁Linien	-9510
▁Streit	-9511
▁caused	-9512
▁fossil	-9513
▁leaves	-9514
▁safety	-9515
▁Gedicht	-9516
▁compare	-9517
▁details	-9518
▁genauer	-9519
▁signals	-9520
▁Existenz	-9521
▁airplane	-9522
▁sentence	-9523
▁zunächst	-9524
▁Vorfahren	-9525
▁Zeitalter	-9526
▁according	-9527
▁irgendein	-9528
▁studieren	-9529
▁importance	-9530
▁zugänglich	-9531
▁Elektrizität	-9532
▁International	-9533
mas	-9534
sph	-9535
ura	-9536
cers	-9537
ints	-9538
izop	-9539
ltra	-9540
mann	-9541
sver	-9542
▁10-	-9543
▁120	-9544
▁Ren	-9545
▁Rio	-9546
▁Urs	-9547
▁bom	-9548
▁nan	-9549
cture	-9550
ifest	-9551
inted	-9552
rator	-9553
▁1970	-9554
▁Dire	-9555
▁Koll	-9556
▁Teen	-9557
▁ober	-9558
▁soul	-9559
ichern	-9560
▁awful	-9561
▁chain	-9562
▁colon	-9563
▁saved	-9564
▁scene	-9565
▁signs	-9566
▁solch	-9567
▁south	-9568
▁subst	-9569
ografie	-9570
▁Health	-9571
▁circum	-9572
▁fields	-9573
▁forced	-9574
▁island	-9575
▁kurzem	-9576
▁movies	-9577
izophren	-9578
▁Spieler	-9579
▁covered	-9580
▁dealing	-9581
▁reichen	-9582
▁starten	-9583
▁verschl	-9584
▁behalten	-9585
▁kürzlich	-9586
▁property	-9587
▁Hollywood	-9588
▁Konsequen	-9589
▁Tradition	-9590
▁essential	-9591
▁gestorben	-9592
▁technical	-9593
▁vergangen	-9594
▁yesterday	-9595
▁Korruption	-9596
▁Organismen	-9597
▁beobachtet	-9598
▁dimensions	-9599
▁Architekten	-9600
▁auseinander	-9601
▁verschwinden	-9602
azz	-9603
üte	-9604
▁BF	-9605
▁Ec	-9606
aurs	-9607
cipl	-9608
▁Ast	-9609
▁Mel	-9610
agina	-9611
▁Anim	-9612
▁ethn	-9613
▁pock	-9614
▁tall	-9615
▁vess	-9616
▁wide	-9617
▁zahl	-9618
artige	-9619
design	-9620
▁folks	-9621
▁fängt	-9622
▁heran	-9623
▁infin	-9624
▁stood	-9625
gegeben	-9626
▁Ausmaß	-9627
▁Grafik	-9628
▁Kaffee	-9629
▁Mexiko	-9630
▁Träume	-9631
▁announ	-9632
▁grunds	-9633
▁refuge	-9634
▁spring	-9635
▁gehören	-9636
▁Prototyp	-9637
▁abhängig	-9638
▁analysis	-9639
▁diagnost	-9640
▁entgegen	-9641
▁schwarze	-9642
▁Jahrzehnt	-9643
▁Everything	-9644
▁Interessen	-9645
▁aufzubauen	-9646
▁electrical	-9647
▁schlechter	-9648
▁connections	-9649
▁researchers	-9650
▁grundlegende	-9651
8.	-9652
kan	-9653
pra	-9654
von	-9655
baut	-9656
▁dat	-9657
gment	-9658
nimmt	-9659
▁Atem	-9660
▁Atom	-9661
▁Camp	-9662
▁Coll	-9663
▁Resp	-9664
▁Roll	-9665
▁asks	-9666
▁hide	-9667
▁jähr	-9668
▁Ägyp	-9669
recher	-9670
▁Brook	-9671
▁Kreuz	-9672
▁Tests	-9673
▁aufta	-9674
▁meist	-9675
▁shoes	-9676
amerika	-9677
auspiel	-9678
forscht	-9679
frieden	-9680
schrift	-9681
▁Aspekt	-9682
▁Staats	-9683
▁Steven	-9684
▁Beweise	-9685
▁angesch	-9686
▁killing	-9687
▁stärker	-9688
▁Elemente	-9689
▁Japanese	-9690
▁Produktion	-9691
▁artificial	-9692
▁innovative	-9693
wä	-9694
uhr	-9695
vas	-9696
vis	-9697
üge	-9698
▁sy	-9699
icip	-9700
▁Pfe	-9701
▁bits	-9702
▁fuhr	-9703
▁tons	-9704
ibliot	-9705
minist	-9706
rechte	-9707
riften	-9708
▁blieb	-9709
▁chimp	-9710
▁folgt	-9711
▁halbe	-9712
▁heavy	-9713
▁nötig	-9714
▁vorbe	-9715
rategie	-9716
umenten	-9717
▁Jemand	-9718
▁Welche	-9719
▁explan	-9720
▁hypoth	-9721
▁verblü	-9722
achstums	-9723
▁Website	-9724
▁arrived	-9725
▁Schatten	-9726
▁clinical	-9727
▁geändert	-9728
▁komplexe	-9729
▁professor	-9730
▁Medikament	-9731
▁considered	-9732
▁faszinierend	-9733
?“	-9734
ij	-9735
üb	-9736
Yes	-9737
isf	-9738
zed	-9739
That	-9740
agon	-9741
gely	-9742
urer	-9743
▁Int	-9744
izien	-9745
kreis	-9746
lying	-9747
rooms	-9748
▁Gand	-9749
▁Klin	-9750
▁Ober	-9751
▁enem	-9752
▁horr	-9753
▁resc	-9754
▁surf	-9755
endung	-9756
onents	-9757
▁anger	-9758
▁erled	-9759
▁spoke	-9760
▁waves	-9761
drücken	-9762
orthern	-9763
▁Canada	-9764
▁Geräus	-9765
▁Saturn	-9766
▁finish	-9767
▁kombin	-9768
▁voices	-9769
ätigkeit	-9770
▁Britain	-9771
▁lessons	-9772
▁astronom	-9773
▁tomorrow	-9774
▁Abschluss	-9775
▁Geschlecht	-9776
▁experienced	-9777
▁beschäftigen	-9778
▁traditionellen	-9779
9.	-9780
oli	-9781
ula	-9782
▁AB	-9783
▁NG	-9784
ario	-9785
fish	-9786
test	-9787
▁700	-9788
▁ruh	-9789
▁tim	-9790
erves	-9791
karte	-9792
▁Such	-9793
▁copy	-9794
▁diet	-9795
▁hadn	-9796
▁trib	-9797
ündete	-9798
▁layer	-9799
▁negot	-9800
erneath	-9801
wirkung	-9802
▁Lachen	-9803
▁damage	-9804
▁lebten	-9805
▁reicht	-9806
▁zählen	-9807
inosaurs	-9808
▁erkennt	-9809
▁letters	-9810
▁sources	-9811
▁Kulturen	-9812
▁appropri	-9813
▁epidemic	-9814
▁feelings	-9815
▁zerstört	-9816
▁Brasilien	-9817
▁convinced	-9818
▁wondering	-9819
▁darstellen	-9820
▁construction	-9821
He	-9822
fle	-9823
hel	-9824
wie	-9825
zep	-9826
▁3.	-9827
adow	-9828
atik	-9829
igem	-9830
star	-9831
uous	-9832
▁Lou	-9833
▁Pen	-9834
▁cow	-9835
chnet	-9836
iable	-9837
igern	-9838
▁Aust	-9839
▁Dach	-9840
▁Gree	-9841
▁Schu	-9842
▁Viet	-9843
▁Zell	-9844
▁flag	-9845
▁kick	-9846
▁shif	-9847
▁spät	-9848
isters	-9849
▁Korea	-9850
▁Weile	-9851
▁autom	-9852
▁divid	-9853
▁flies	-9854
▁liked	-9855
▁pengu	-9856
▁recon	-9857
▁wuchs	-9858
stellte	-9859
▁credit	-9860
▁drüben	-9861
▁meiste	-9862
▁sample	-9863
elescope	-9864
struktur	-9865
▁Florida	-9866
▁autonom	-9867
▁calling	-9868
▁neurosc	-9869
▁opening	-9870
▁Chemikal	-9871
▁reaction	-9872
▁thoughts	-9873
▁Emotionen	-9874
▁Geheimnis	-9875
▁beschleun	-9876
▁beschloss	-9877
▁chemicals	-9878
▁geschickt	-9879
▁satellite	-9880
▁verhalten	-9881
▁Überrasch	-9882
▁healthcare	-9883
▁Mitarbeiter	-9884
▁Schwierigkeiten	-9885
Do	-9886
▁Ve	-9887
Mail	-9888
edic	-9889
rain	-9890
skop	-9891
▁10,	-9892
▁Dat	-9893
▁Ray	-9894
elben	-9895
gerät	-9896
igste	-9897
iques	-9898
▁Fehl	-9899
▁Show	-9900
▁Sitz	-9901
▁Ungl	-9902
▁dots	-9903
▁gall	-9904
▁grab	-9905
▁verg	-9906
▁Seele	-9907
▁cloth	-9908
▁geist	-9909
▁holes	-9910
▁maint	-9911
▁minim	-9912
▁passt	-9913
▁Umfeld	-9914
▁deeper	-9915
▁encoun	-9916
▁körper	-9917
▁leiden	-9918
▁picked	-9919
▁player	-9920
▁spezif	-9921
▁steigt	-9922
▁trials	-9923
▁Malaria	-9924
▁radical	-9925
▁Nachbarn	-9926
▁anwenden	-9927
▁cultures	-9928
▁erstellt	-9929
▁expected	-9930
▁messages	-9931
▁Erklärung	-9932
▁aufregend	-9933
▁chemistry	-9934
▁entdeckte	-9935
▁entertain	-9936
▁sophistic	-9937
▁expression	-9938
▁management	-9939
▁possibilities	-9940
-1	-9941
ET	-9942
add	-9943
oute	-9944
resp	-9945
rägt	-9946
▁19.	-9947
▁Hey	-9948
alyse	-9949
linge	-9950
omben	-9951
▁Mary	-9952
▁Merk	-9953
▁Soll	-9954
▁Verd	-9955
▁erle	-9956
▁fern	-9957
▁gefü	-9958
▁user	-9959
orient	-9960
▁Fälle	-9961
▁Their	-9962
▁prove	-9963
anthrop	-9964
spielen	-9965
▁Quelle	-9966
▁Voraus	-9967
▁advert	-9968
▁analog	-9969
▁enorme	-9970
▁establ	-9971
▁muscle	-9972
▁nieder	-9973
bewegung	-9974
zuführen	-9975
▁Maßstab	-9976
▁TEDTalk	-9977
▁cartoon	-9978
▁cutting	-9979
▁morgens	-9980
▁nations	-9981
▁spielte	-9982
▁variety	-9983
▁annehmen	-9984
▁sprachen	-9985
▁President	-9986
▁Zuschauer	-9987
▁erscheint	-9988
▁interface	-9989
▁verfügbar	-9990
▁vermeiden	-9991
▁zerstören	-9992
▁Diskussion	-9993
▁definieren	-9994
3.	-9995
Is	-9996
hst	-9997
pet	-9998
ups	-9999
gant	-10000
oses	-10001
ping	-10002
umin	-10003
▁DNS	-10004
▁Fas	-10005
ancen	-10006
oking	-10007
uable	-10008
▁Kerl	-10009
▁Null	-10010
▁Verw	-10011
▁drin	-10012
▁evil	-10013
▁klin	-10014
▁maps	-10015
▁vote	-10016
▁youn	-10017
bridge	-10018
▁Black	-10019
▁Derek	-10020
▁Zitat	-10021
▁ermut	-10022
▁perce	-10023
▁zieht	-10024
▁übrig	-10025
bereich	-10026
bewusst	-10027
gedacht	-10028
quality	-10029
▁Batter	-10030
▁Erwart	-10031
▁berühm	-10032
▁videos	-10033
ichtlich	-10034
programm	-10035
▁Konflik	-10036
▁Student	-10037
▁keeping	-10038
▁Weltraum	-10039
▁emerging	-10040
▁nützlich	-10041
stellungen	-10042
▁aufgebaut	-10043
▁dinosaurs	-10044
▁collection	-10045
▁schlechten	-10046
▁underneath	-10047
möglichkeiten	-10048
MA	-10049
afe	-10050
cal	-10051
hab	-10052
▁191	-10053
▁Day	-10054
▁Ost	-10055
genda	-10056
iquid	-10057
passt	-10058
▁Bron	-10059
▁Prim	-10060
▁beib	-10061
▁getr	-10062
▁scri	-10063
▁shel	-10064
acters	-10065
haften	-10066
holfen	-10067
iences	-10068
▁Betra	-10069
▁Zweck	-10070
▁schwe	-10071
▁solid	-10072
▁sympt	-10073
steigen	-10074
▁Chemie	-10075
▁setzte	-10076
ographie	-10077
▁battery	-10078
▁erwähnt	-10079
▁experts	-10080
isationen	-10081
▁deswegen	-10082
▁marriage	-10083
imensionen	-10084
versorgung	-10085
▁Philosoph	-10086
▁carefully	-10087
▁worldwide	-10088
▁unabhängig	-10089
▁vermitteln	-10090
▁independent	-10091
▁menschlicher	-10092
IP	-10093
sa	-10094
rix	-10095
äne	-10096
▁95	-10097
▁Ah	-10098
alem	-10099
illa	-10100
izer	-10101
▁Mas	-10102
▁Wei	-10103
▁Zer	-10104
glied	-10105
rufen	-10106
state	-10107
wesen	-10108
▁blow	-10109
▁hurt	-10110
▁wake	-10111
▁weak	-10112
▁Parte	-10113
▁Union	-10114
▁außen	-10115
▁broke	-10116
▁quasi	-10117
▁spont	-10118
▁unend	-10119
ulating	-10120
▁einzus	-10121
▁formen	-10122
▁review	-10123
▁Berechn	-10124
▁capture	-10125
▁dynamic	-10126
▁müssten	-10127
▁umgeben	-10128
verbrauch	-10129
▁advanced	-10130
▁consumer	-10131
▁disaster	-10132
▁exercise	-10133
▁whenever	-10134
▁Verbesser	-10135
▁invention	-10136
▁characters	-10137
▁verbessert	-10138
▁Erwachsenen	-10139
▁entrepreneurs	-10140
DP	-10141
bru	-10142
gte	-10143
▁wü	-10144
agos	-10145
aube	-10146
kont	-10147
▁Sum	-10148
▁sem	-10149
fahrt	-10150
iency	-10151
ierer	-10152
inahe	-10153
itals	-10154
staat	-10155
▁Fast	-10156
▁Hill	-10157
▁Vern	-10158
▁arts	-10159
▁ends	-10160
▁flat	-10161
▁shut	-10162
agramm	-10163
▁Neues	-10164
▁empty	-10165
▁rates	-10166
▁sucht	-10167
outhern	-10168
züglich	-10169
▁Flücht	-10170
▁Gewinn	-10171
▁Größen	-10172
▁Riesen	-10173
▁facing	-10174
▁status	-10175
▁Angriff	-10176
▁Auswahl	-10177
▁Quanten	-10178
▁Vietnam	-10179
▁beinahe	-10180
▁viruses	-10181
fähigkeit	-10182
▁gewissen	-10183
▁valuable	-10184
▁organized	-10185
▁Australien	-10186
▁stattdessen	-10187
▁transparent	-10188
▁Informations	-10189
.«	-10190
mü	-10191
lyn	-10192
▁Bay	-10193
▁Dro	-10194
▁Hol	-10195
▁Jew	-10196
▁Mah	-10197
asste	-10198
maßen	-10199
▁Cart	-10200
▁Gore	-10201
▁Jose	-10202
▁Long	-10203
▁Trag	-10204
▁Wurz	-10205
▁unus	-10206
illing	-10207
imming	-10208
muster	-10209
▁Antar	-10210
▁Brief	-10211
▁Gutes	-10212
▁Offen	-10213
▁beweg	-10214
▁fähig	-10215
▁humor	-10216
ziehung	-10217
▁Bedroh	-10218
▁Kriegs	-10219
▁Ozeane	-10220
▁ausgel	-10221
▁heißen	-10222
▁houses	-10223
▁treten	-10224
▁Erkrank	-10225
▁Komment	-10226
▁Stephen	-10227
▁cameras	-10228
▁moderne	-10229
▁worüber	-10230
▁Freundin	-10231
▁requires	-10232
▁Bereichen	-10233
▁photograp	-10234
▁überrasch	-10235
▁Verhältnis	-10236
▁relatively	-10237
▁transition	-10238
▁Deutschland	-10239
-,	-10240
Al	-10241
bors	-10242
dest	-10243
izon	-10244
▁Bem	-10245
▁Tes	-10246
▁ped	-10247
▁rig	-10248
▁zut	-10249
iform	-10250
▁Matt	-10251
▁chap	-10252
▁rief	-10253
▁summ	-10254
jemand	-10255
▁Brown	-10256
▁Grand	-10257
▁Pingu	-10258
igungen	-10259
▁Epidem	-10260
▁Helden	-10261
▁ergibt	-10262
▁kannte	-10263
▁option	-10264
▁sharks	-10265
▁zusätz	-10266
qualität	-10267
▁Schnitt	-10268
▁microsc	-10269
▁rapidly	-10270
▁solcher	-10271
▁ersetzen	-10272
▁exchange	-10273
▁generate	-10274
▁location	-10275
▁behaviors	-10276
▁movements	-10277
▁Definition	-10278
▁beschreibt	-10279
▁discussion	-10280
▁properties	-10281
▁situations	-10282
erechtigkeit	-10283
verständlich	-10284
▁intellectual	-10285
LA	-10286
ees	-10287
ria	-10288
sun	-10289
umn	-10290
gene	-10291
würd	-10292
▁Opt	-10293
▁bul	-10294
▁tap	-10295
▁wom	-10296
artig	-10297
eller	-10298
öpfen	-10299
▁Kurs	-10300
▁Weib	-10301
▁deta	-10302
▁erwe	-10303
▁exec	-10304
▁höre	-10305
▁ride	-10306
▁suit	-10307
esents	-10308
äusern	-10309
▁Moral	-10310
▁Sogar	-10311
▁Stufe	-10312
▁Vögel	-10313
▁crowd	-10314
▁dunkl	-10315
▁fewer	-10316
▁passw	-10317
▁teeth	-10318
▁vorne	-10319
areness	-10320
gründet	-10321
steroid	-10322
▁Anteil	-10323
▁Inhalt	-10324
▁Neurow	-10325
▁Schuld	-10326
▁fellow	-10327
▁gelöst	-10328
▁Entfern	-10329
▁Präsent	-10330
▁Risiken	-10331
▁Verlust	-10332
▁gebeten	-10333
▁roughly	-10334
▁victims	-10335
▁Arbeiter	-10336
▁Bereiche	-10337
▁convince	-10338
▁entstand	-10339
▁gefangen	-10340
▁hydrogen	-10341
▁verwende	-10342
▁Cambridge	-10343
▁Potential	-10344
▁chimpanze	-10345
▁Situationen	-10346
▁Erinnerungen	-10347
▁specifically	-10348
führ	-10349
osex	-10350
temp	-10351
ämpf	-10352
▁800	-10353
▁Amy	-10354
▁LED	-10355
▁Rom	-10356
▁biz	-10357
▁pil	-10358
ician	-10359
otten	-10360
ichert	-10361
▁cards	-10362
▁chart	-10363
▁goals	-10364
achtung	-10365
griffen	-10366
▁Inspir	-10367
▁Virgin	-10368
▁former	-10369
▁skelet	-10370
▁Fernseh	-10371
▁depends	-10372
▁promise	-10373
▁welchem	-10374
▁lifetime	-10375
idimension	-10376
▁Erfindung	-10377
▁digitalen	-10378
▁practical	-10379
▁schwimmen	-10380
▁represents	-10381
▁vulnerable	-10382
▁effectively	-10383
▁schrecklich	-10384
aa	-10385
Man	-10386
ora	-10387
ruh	-10388
sey	-10389
ubb	-10390
ähn	-10391
ült	-10392
frei	-10393
laub	-10394
rane	-10395
▁Skl	-10396
▁Yet	-10397
▁hur	-10398
▁lic	-10399
ünder	-10400
▁Four	-10401
▁Mult	-10402
▁Stör	-10403
▁Wall	-10404
▁corn	-10405
▁cure	-10406
▁gain	-10407
sprung	-10408
titude	-10409
▁Diagn	-10410
▁Hilfs	-10411
▁Letzt	-10412
▁Women	-10413
▁admit	-10414
▁chron	-10415
ständen	-10416
▁Damals	-10417
▁Doktor	-10418
▁Howard	-10419
▁Signal	-10420
▁battle	-10421
▁prefer	-10422
▁authent	-10423
▁primary	-10424
▁theoret	-10425
▁Echtzeit	-10426
▁Geräusch	-10427
▁Zwischen	-10428
▁langweil	-10429
▁verteilt	-10430
▁industrie	-10431
▁beinhaltet	-10432
▁techniques	-10433
▁Statistiken	-10434
EC	-10435
Gl	-10436
ati	-10437
vey	-10438
arre	-10439
oles	-10440
▁Pet	-10441
▁Sor	-10442
▁rit	-10443
cling	-10444
gling	-10445
greif	-10446
halts	-10447
quare	-10448
sters	-10449
uropä	-10450
weile	-10451
▁bran	-10452
▁diss	-10453
▁irre	-10454
▁neut	-10455
▁qual	-10456
▁scre	-10457
▁snow	-10458
indert	-10459
ortion	-10460
▁Febru	-10461
▁Lager	-10462
▁Stuhl	-10463
▁Wieso	-10464
▁honor	-10465
▁navig	-10466
zufügen	-10467
▁Anyway	-10468
▁Mandel	-10469
▁bottle	-10470
▁buying	-10471
▁dunkle	-10472
▁langer	-10473
▁contain	-10474
▁fiction	-10475
▁regener	-10476
▁seitdem	-10477
▁überprü	-10478
▁besuchen	-10479
▁parallel	-10480
▁relative	-10481
▁schätzen	-10482
▁besondere	-10483
▁emissions	-10484
▁langfrist	-10485
▁notwendig	-10486
▁producing	-10487
▁Buchstaben	-10488
▁Großmutter	-10489
▁gemeinsame	-10490
▁underwater	-10491
▁verwandelt	-10492
▁westlichen	-10493
▁gesellschaft	-10494
▁collaboration	-10495
/1	-10496
bek	-10497
▁KB	-10498
▁Zä	-10499
eten	-10500
iler	-10501
▁GDP	-10502
▁Ham	-10503
▁Jes	-10504
▁err	-10505
ränkt	-10506
▁Homo	-10507
▁Mike	-10508
▁jüng	-10509
▁lady	-10510
▁trop	-10511
gehend	-10512
iglich	-10513
lösung	-10514
▁Passw	-10515
▁defen	-10516
▁fiber	-10517
▁risks	-10518
itarian	-10519
▁Einsch	-10520
▁Tonnen	-10521
▁Wetter	-10522
▁bubble	-10523
▁define	-10524
▁hinten	-10525
▁inevit	-10526
▁length	-10527
▁Element	-10528
▁Werbung	-10529
▁enthält	-10530
▁insight	-10531
▁konstru	-10532
▁liefern	-10533
▁musical	-10534
▁unusual	-10535
besondere	-10536
▁explains	-10537
▁versteht	-10538
▁veränderte	-10539
▁unterstützt	-10540
▁mathematical	-10541
▁internationale	-10542
hai	-10543
ini	-10544
uts	-10545
bers	-10546
kins	-10547
okus	-10548
samm	-10549
▁Hen	-10550
▁Sus	-10551
▁Vis	-10552
▁pot	-10553
chron	-10554
hythm	-10555
icing	-10556
▁Bund	-10557
▁Hell	-10558
▁Inte	-10559
▁Jane	-10560
▁Josh	-10561
▁Kenn	-10562
▁Komb	-10563
▁arab	-10564
▁thro	-10565
▁unit	-10566
▁wand	-10567
rieren	-10568
▁Süden	-10569
▁added	-10570
▁befre	-10571
▁reven	-10572
▁smile	-10573
▁staff	-10574
▁übert	-10575
▁Belohn	-10576
▁Nieder	-10577
▁Wolken	-10578
▁bauten	-10579
▁explod	-10580
▁junger	-10581
▁organs	-10582
▁Bestand	-10583
▁Momente	-10584
▁Wechsel	-10585
▁Wissens	-10586
▁berührt	-10587
▁kitchen	-10588
▁malaria	-10589
▁release	-10590
▁steuern	-10591
▁carrying	-10592
▁darunter	-10593
▁zurückzu	-10594
▁Wohlstand	-10595
▁generally	-10596
▁molecular	-10597
▁überwinden	-10598
▁fantastisch	-10599
▁Wesentlichen	-10600
▁vorzustellen	-10601
▁Persönlichkeit	-10602
▁wirtschaftliche	-10603
].	-10604
not	-10605
oma	-10606
airs	-10607
flug	-10608
ials	-10609
netz	-10610
rass	-10611
what	-10612
▁Wow	-10613
▁asp	-10614
▁bow	-10615
akers	-10616
cover	-10617
oting	-10618
ville	-10619
▁Allt	-10620
▁Anst	-10621
▁Expl	-10622
▁Hans	-10623
▁Prob	-10624
▁biom	-10625
▁firm	-10626
▁mode	-10627
▁stir	-10628
ueller	-10629
▁Kevin	-10630
▁doubt	-10631
▁shall	-10632
▁silen	-10633
▁sugar	-10634
▁Laptop	-10635
▁Stärke	-10636
▁Winter	-10637
▁detect	-10638
▁thanks	-10639
▁worlds	-10640
▁erhielt	-10641
▁include	-10642
▁nachden	-10643
▁selling	-10644
▁sending	-10645
▁standen	-10646
▁verring	-10647
▁äußerst	-10648
▁überein	-10649
▁übersch	-10650
▁Minister	-10651
▁circumst	-10652
▁pleasure	-10653
▁systemat	-10654
▁Operation	-10655
▁Strategie	-10656
▁mortality	-10657
▁pollution	-10658
▁terrorism	-10659
▁übernehmen	-10660
▁Kombination	-10661
▁Stattdessen	-10662
▁Zivilisation	-10663
▁Gerechtigkeit	-10664
▁unglaublichen	-10665
▁internationalen	-10666
abb	-10667
▁ce	-10668
bell	-10669
rict	-10670
ught	-10671
▁nor	-10672
acken	-10673
▁Alph	-10674
▁Play	-10675
▁Tele	-10676
▁grid	-10677
▁grün	-10678
▁ring	-10679
▁rout	-10680
▁soft	-10681
▁Klein	-10682
▁Stern	-10683
▁beach	-10684
▁maxim	-10685
▁sides	-10686
▁traum	-10687
aurants	-10688
▁Anders	-10689
▁Andrew	-10690
▁Leider	-10691
▁assign	-10692
▁fehlen	-10693
▁remain	-10694
▁sparen	-10695
▁winter	-10696
sprozess	-10697
▁Fahrrad	-10698
▁Geistes	-10699
▁Respekt	-10700
▁Taliban	-10701
▁hierher	-10702
▁lokalen	-10703
▁regions	-10704
▁Kongress	-10705
▁Nachhalt	-10706
▁beweisen	-10707
▁encourag	-10708
▁kreieren	-10709
▁prepared	-10710
▁released	-10711
▁vertraut	-10712
▁Anwendung	-10713
▁interests	-10714
bevölkerung	-10715
▁convention	-10716
▁restaurant	-10717
▁Jahrzehnten	-10718
▁überraschend	-10719
▁medizinischen	-10720
Na	-10721
▁x	-10722
200	-10723
Amer	-10724
appy	-10725
foot	-10726
half	-10727
hips	-10728
ikes	-10729
imit	-10730
inte	-10731
ompl	-10732
quar	-10733
▁Krä	-10734
▁dün	-10735
▁gay	-10736
▁gee	-10737
▁ing	-10738
▁Paar	-10739
▁Rake	-10740
▁Teuf	-10741
▁Tief	-10742
▁acqu	-10743
▁sorg	-10744
freund	-10745
mented	-10746
▁Bauch	-10747
▁Pfund	-10748
▁Rechn	-10749
▁Schäd	-10750
▁drauf	-10751
▁serve	-10752
prechen	-10753
▁Handel	-10754
▁blauen	-10755
▁durchs	-10756
▁factor	-10757
▁meinte	-10758
▁Fliegen	-10759
▁Molekül	-10760
▁Schicks	-10761
▁factors	-10762
▁vergröß	-10763
abilities	-10764
▁gespielt	-10765
▁mögliche	-10766
▁verstehe	-10767
▁eindeutig	-10768
▁lediglich	-10769
▁Ökosystem	-10770
▁components	-10771
▁passionate	-10772
▁Chemikalien	-10773
▁Einstellung	-10774
▁beschrieben	-10775
▁photographs	-10776
▁politicians	-10777
▁Wirtschaftsw	-10778
▁environments	-10779
fir	-10780
▁85	-10781
▁SS	-10782
ense	-10783
fert	-10784
mehr	-10785
▁Imp	-10786
▁Mor	-10787
▁Sow	-10788
illen	-10789
opter	-10790
ätter	-10791
▁Jung	-10792
▁brit	-10793
▁runs	-10794
▁vent	-10795
▁zust	-10796
ammelt	-10797
apital	-10798
▁Poten	-10799
▁White	-10800
▁armen	-10801
▁inher	-10802
▁steel	-10803
dlichen	-10804
wärmung	-10805
▁Danach	-10806
▁Gegend	-10807
▁Hunger	-10808
▁Lungen	-10809
▁Sprach	-10810
▁Symbol	-10811
▁begren	-10812
▁besagt	-10813
▁conver	-10814
▁furcht	-10815
▁geomet	-10816
▁Galaxie	-10817
▁Lektion	-10818
▁Pacific	-10819
▁attempt	-10820
▁engaged	-10821
▁feature	-10822
▁gefällt	-10823
▁however	-10824
▁impress	-10825
▁privacy	-10826
▁Lebenser	-10827
▁Ungleich	-10828
▁leichter	-10829
▁trillion	-10830
▁aufnehmen	-10831
▁typically	-10832
▁Instrument	-10833
▁Schauspiel	-10834
▁fasziniert	-10835
▁introduced	-10836
▁perception	-10837
▁psychology	-10838
▁feststellen	-10839
▁großartigen	-10840
▁sophisticated	-10841
Ch	-10842
DA	-10843
kul	-10844
uba	-10845
Look	-10846
anen	-10847
grad	-10848
▁Cra	-10849
boden	-10850
level	-10851
ratch	-10852
▁Empf	-10853
▁atom	-10854
▁beiz	-10855
▁disp	-10856
▁genü	-10857
▁shop	-10858
▁swim	-10859
▁verf	-10860
▁wars	-10861
icious	-10862
ternal	-10863
▁Brian	-10864
▁Hunde	-10865
▁Koran	-10866
▁Küste	-10867
▁Scott	-10868
▁Since	-10869
▁Tumor	-10870
▁atoms	-10871
▁cyber	-10872
▁goods	-10873
▁habit	-10874
▁metal	-10875
▁obser	-10876
▁occup	-10877
▁stehe	-10878
▁stock	-10879
▁sweet	-10880
▁unbek	-10881
erstand	-10882
▁Herren	-10883
▁Mengen	-10884
▁Normal	-10885
▁blocks	-10886
▁fisher	-10887
▁gelebt	-10888
▁mirror	-10889
▁Bibliot	-10890
▁Einheit	-10891
▁Wirkung	-10892
losigkeit	-10893
▁Komponen	-10894
▁affected	-10895
▁dahinter	-10896
▁graduate	-10897
▁spectrum	-10898
▁ähnliche	-10899
▁Grundlage	-10900
▁Interview	-10901
▁Transport	-10902
▁employees	-10903
▁entfernen	-10904
▁introduce	-10905
▁newspaper	-10906
▁wirkliche	-10907
▁democratic	-10908
▁Bedürfnisse	-10909
▁Innovationen	-10910
▁menschliches	-10911
öss	-10912
abol	-10913
leib	-10914
▁Ehr	-10915
▁Hon	-10916
▁erz	-10917
▁lon	-10918
daten	-10919
ielle	-10920
▁2005	-10921
▁2010	-10922
▁Zahn	-10923
▁clim	-10924
▁fürs	-10925
▁heir	-10926
▁seid	-10927
izienz	-10928
leitet	-10929
source	-10930
unting	-10931
▁Darum	-10932
▁Gehen	-10933
▁Platt	-10934
▁Power	-10935
▁toxic	-10936
▁tumor	-10937
ermaßen	-10938
zwungen	-10939
▁Brücke	-10940
▁advice	-10941
▁anonym	-10942
▁compar	-10943
▁depart	-10944
▁driven	-10945
▁ingred	-10946
▁replic	-10947
▁stattf	-10948
▁talent	-10949
▁aggress	-10950
▁grundle	-10951
▁Betracht	-10952
▁folgende	-10953
▁ancestors	-10954
▁gegründet	-10955
▁mountains	-10956
▁radiation	-10957
▁algorithms	-10958
▁gegenseitig	-10959
▁evolutionary	-10960
70	-10961
Wow	-10962
rey	-10963
wel	-10964
▁MT	-10965
..."	-10966
kind	-10967
äden	-10968
äfte	-10969
▁bag	-10970
▁dot	-10971
▁wra	-10972
anned	-10973
antom	-10974
▁Benj	-10975
▁Penn	-10976
▁bare	-10977
▁dogs	-10978
forest	-10979
▁5,000	-10980
▁Einen	-10981
▁Space	-10982
▁Weihn	-10983
▁Würde	-10984
▁imple	-10985
▁notes	-10986
▁polar	-10987
▁unerw	-10988
▁verab	-10989
gruppen	-10990
▁Blumen	-10991
▁Skulpt	-10992
▁regard	-10993
▁satisf	-10994
▁season	-10995
material	-10996
▁Central	-10997
▁Johnson	-10998
▁actions	-10999
▁berühmt	-11000
▁gravity	-11001
▁mistake	-11002
▁replace	-11003
▁singing	-11004
▁Congress	-11005
▁sichtbar	-11006
▁weiterer	-11007
leistungen	-11008
▁Gesichter	-11009
▁Südafrika	-11010
▁Verbrechen	-11011
▁unexpected	-11012
▁Aktivitäten	-11013
▁Stammzellen	-11014
▁akzeptieren	-11015
aat	-11016
▁33	-11017
lles	-11018
nahm	-11019
ränk	-11020
ugel	-11021
uses	-11022
▁Ann	-11023
▁Boy	-11024
▁Brü	-11025
iogen	-11026
seins	-11027
▁Laut	-11028
▁Leon	-11029
▁Weiß	-11030
▁legt	-11031
▁sees	-11032
▁tank	-11033
making	-11034
penden	-11035
plätze	-11036
urance	-11037
▁Blatt	-11038
▁Kenia	-11039
▁Media	-11040
▁Trick	-11041
▁aging	-11042
▁baute	-11043
▁innen	-11044
▁refer	-11045
▁heisst	-11046
▁liquid	-11047
▁medium	-11048
▁realen	-11049
▁singen	-11050
sprechen	-11051
▁William	-11052
▁centers	-11053
▁kriegen	-11054
▁manchen	-11055
▁opinion	-11056
▁reached	-11057
▁Mehrheit	-11058
▁elektron	-11059
▁mistakes	-11060
▁recorded	-11061
▁encounter	-11062
▁erweitern	-11063
▁definitely	-11064
▁protection	-11065
▁combination	-11066
Ex	-11067
pa	-11068
va	-11069
▁:	-11070
agh	-11071
▁CD	-11072
▁Lu	-11073
mord	-11074
omme	-11075
umps	-11076
west	-11077
zipl	-11078
▁Ban	-11079
▁Wil	-11080
▁phr	-11081
▁que	-11082
▁ums	-11083
iring	-11084
iveau	-11085
▁Walk	-11086
▁nett	-11087
mechan	-11088
▁Wüste	-11089
▁aston	-11090
▁piano	-11091
▁skill	-11092
▁toler	-11093
stoffen	-11094
▁Gesamt	-11095
▁Sobald	-11096
▁Welten	-11097
▁cortex	-11098
▁eingel	-11099
▁scared	-11100
▁soviel	-11101
▁ungehe	-11102
underten	-11103
▁chicken	-11104
▁courage	-11105
▁electro	-11106
▁fishing	-11107
▁forests	-11108
▁zeigten	-11109
▁Aufnahme	-11110
▁Deswegen	-11111
▁Spektrum	-11112
▁beispiel	-11113
▁combined	-11114
▁falschen	-11115
▁Gegenwart	-11116
▁hospitals	-11117
▁neighbors	-11118
▁scheinbar	-11119
▁traveling	-11120
▁meaningful	-11121
▁Terrorismus	-11122
▁schwieriger	-11123
oir	-11124
see	-11125
äub	-11126
örm	-11127
bage	-11128
emin	-11129
gibt	-11130
ifth	-11131
oint	-11132
rüst	-11133
ulin	-11134
▁Dep	-11135
▁bug	-11136
▁wüs	-11137
alled	-11138
athie	-11139
chest	-11140
eding	-11141
kehrt	-11142
samen	-11143
uther	-11144
▁Rett	-11145
▁bath	-11146
▁clip	-11147
▁erwä	-11148
▁gang	-11149
▁quad	-11150
▁vibr	-11151
friend	-11152
igungs	-11153
ruppen	-11154
▁Hotel	-11155
▁Jesus	-11156
▁Motiv	-11157
▁While	-11158
▁dedic	-11159
▁estim	-11160
▁horse	-11161
▁keeps	-11162
▁Besond	-11163
▁Russia	-11164
▁Zufall	-11165
▁aftern	-11166
▁kümmer	-11167
▁sauber	-11168
▁vieles	-11169
▁Hindern	-11170
▁Viertel	-11171
▁Zeitung	-11172
▁empathy	-11173
▁erhöhen	-11174
arbeitung	-11175
▁Gesichts	-11176
▁Vorteile	-11177
▁besseres	-11178
▁memories	-11179
▁required	-11180
▁stronger	-11181
▁Alexander	-11182
▁awareness	-11183
▁komplexen	-11184
▁angenommen	-11185
▁Sicherheits	-11186
6.	-11187
ima	-11188
isl	-11189
▁3,	-11190
alte	-11191
aret	-11192
uits	-11193
wald	-11194
▁Ram	-11195
▁Roh	-11196
▁adj	-11197
▁spr	-11198
▁Ähn	-11199
ahnen	-11200
chnik	-11201
ettet	-11202
räger	-11203
räume	-11204
utete	-11205
üssen	-11206
▁baut	-11207
▁brut	-11208
▁eggs	-11209
▁froh	-11210
▁gere	-11211
▁heim	-11212
▁länd	-11213
▁prec	-11214
▁rote	-11215
▁tape	-11216
fected	-11217
reffen	-11218
reiche	-11219
▁Sympt	-11220
▁Teles	-11221
▁false	-11222
▁geste	-11223
▁immen	-11224
▁mosqu	-11225
▁ought	-11226
▁topic	-11227
▁August	-11228
▁Führer	-11229
▁Pflege	-11230
▁anfing	-11231
▁ausgew	-11232
▁belieb	-11233
▁lokale	-11234
▁pulled	-11235
▁solved	-11236
▁stream	-11237
▁Afrikas	-11238
▁Gebiete	-11239
▁gewählt	-11240
▁glaubte	-11241
erstörung	-11242
schriften	-11243
stitution	-11244
verhalten	-11245
▁Schritte	-11246
▁features	-11247
▁konfront	-11248
▁ultimate	-11249
▁vehicles	-11250
▁bekannten	-11251
▁dieselben	-11252
▁encourage	-11253
▁naturally	-11254
▁geschlossen	-11255
▁funktionierte	-11256
BM	-11257
lad	-11258
▁28	-11259
enew	-11260
thur	-11261
ulse	-11262
▁Alt	-11263
▁FBI	-11264
▁Jac	-11265
▁Leg	-11266
▁hey	-11267
acles	-11268
adium	-11269
iders	-11270
nungs	-11271
orter	-11272
scale	-11273
▁Bege	-11274
▁Nase	-11275
▁hang	-11276
▁iPod	-11277
▁tick	-11278
apping	-11279
ateful	-11280
estyle	-11281
unkten	-11282
▁3,000	-11283
▁Damen	-11284
▁Erdbe	-11285
▁embar	-11286
▁input	-11287
▁tests	-11288
▁ultra	-11289
▁verkn	-11290
▁Fabrik	-11291
▁Säuget	-11292
▁bestät	-11293
▁drives	-11294
▁hoping	-11295
▁senden	-11296
▁sports	-11297
▁Absicht	-11298
▁Perhaps	-11299
▁Richtig	-11300
▁Signale	-11301
▁applied	-11302
▁besitzt	-11303
▁dropped	-11304
▁records	-11305
▁Bevölker	-11306
▁zeichnen	-11307
▁Allgemein	-11308
▁Marketing	-11309
▁framework	-11310
▁functions	-11311
▁increased	-11312
▁mechanism	-11313
▁überlegen	-11314
▁Prinzipien	-11315
▁literature	-11316
▁personally	-11317
▁destruction	-11318
▁gemeinsamen	-11319
▁inspiration	-11320
▁participate	-11321
▁Fortschritte	-11322
▁technological	-11323
▁transportation	-11324
],	-11325
ffe	-11326
pel	-11327
▁Ky	-11328
igma	-11329
ombe	-11330
sper	-11331
ätzt	-11332
▁Que	-11333
▁ens	-11334
achel	-11335
belie	-11336
lager	-11337
▁Früh	-11338
▁Nick	-11339
▁arme	-11340
▁bicy	-11341
▁hits	-11342
▁mile	-11343
ducing	-11344
gesamt	-11345
▁Erinn	-11346
▁Kabel	-11347
▁Stahl	-11348
▁athle	-11349
▁fährt	-11350
▁jener	-11351
▁legit	-11352
▁prime	-11353
▁storm	-11354
▁theme	-11355
▁Dunkel	-11356
▁France	-11357
▁Kirche	-11358
▁Symmet	-11359
▁advent	-11360
▁church	-11361
▁formed	-11362
▁lachen	-11363
▁senses	-11364
▁ökonom	-11365
lerweile	-11366
▁largely	-11367
▁witness	-11368
▁Business	-11369
▁birthday	-11370
▁digitale	-11371
▁internal	-11372
▁occasion	-11373
▁schlafen	-11374
▁sunlight	-11375
▁Überzeug	-11376
▁Literatur	-11377
▁computing	-11378
▁erforscht	-11379
▁activities	-11380
▁efficiency	-11381
▁physically	-11382
▁Untersuchung	-11383
▁konzentriert	-11384
▁fundamentally	-11385
▁Nachhaltigkeit	-11386
wen	-11387
önt	-11388
▁Ra	-11389
lief	-11390
mack	-11391
reck	-11392
▁Mig	-11393
▁Ter	-11394
▁sau	-11395
bleme	-11396
istin	-11397
▁Baus	-11398
▁Blue	-11399
▁Dazu	-11400
▁Five	-11401
▁Mama	-11402
▁erhe	-11403
▁grad	-11404
▁heil	-11405
▁peak	-11406
▁tats	-11407
father	-11408
▁Immer	-11409
▁Initi	-11410
▁Liber	-11411
▁Phase	-11412
▁günst	-11413
▁inten	-11414
▁score	-11415
▁shame	-11416
▁Gottes	-11417
▁Newton	-11418
▁bedeut	-11419
▁desper	-11420
▁leiten	-11421
▁studio	-11422
atastrop	-11423
pflanzen	-11424
▁Sternen	-11425
▁accompl	-11426
▁amounts	-11427
▁ansieht	-11428
▁führten	-11429
▁operate	-11430
▁silence	-11431
▁Diagramm	-11432
▁Metapher	-11433
▁perfekte	-11434
▁Billionen	-11435
▁afternoon	-11436
▁behaupten	-11437
▁collected	-11438
▁marketing	-11439
▁bezeichnen	-11440
▁foundation	-11441
▁automatisch	-11442
▁aufgewachsen	-11443
▁afrikanischen	-11444
▁manufacturing	-11445
▁sustainability	-11446
My	-11447
▁PC	-11448
atar	-11449
cons	-11450
etch	-11451
irds	-11452
reht	-11453
uted	-11454
whel	-11455
▁Cop	-11456
▁ere	-11457
abeth	-11458
elson	-11459
linie	-11460
schne	-11461
▁1000	-11462
▁Chef	-11463
▁Gute	-11464
▁Hard	-11465
▁Weis	-11466
▁joke	-11467
▁remo	-11468
▁wine	-11469
Dollar	-11470
aptops	-11471
kosten	-11472
recken	-11473
umines	-11474
zeigen	-11475
▁Dafür	-11476
▁Henry	-11477
▁Rhyth	-11478
▁pregn	-11479
▁repar	-11480
antasie	-11481
ließend	-11482
schläge	-11483
ältigen	-11484
▁Alters	-11485
▁Mittag	-11486
▁elimin	-11487
▁weißen	-11488
▁willst	-11489
▁ökolog	-11490
ikations	-11491
▁Chancen	-11492
▁cooking	-11493
▁herausf	-11494
▁Teenager	-11495
▁Zunächst	-11496
▁antibiot	-11497
▁constant	-11498
▁gefallen	-11499
▁occurred	-11500
▁threaten	-11501
schmutzung	-11502
▁Elefanten	-11503
▁embarrass	-11504
▁gebraucht	-11505
▁protected	-11506
▁conclusion	-11507
▁Unterhaltung	-11508
▁conservation	-11509
▁Vorstellungen	-11510
▁Gemeinschaften	-11511
ato	-11512
urr	-11513
▁sä	-11514
▁Mio	-11515
▁Moo	-11516
▁Okt	-11517
▁Son	-11518
▁hem	-11519
▁mad	-11520
▁toy	-11521
erung	-11522
esome	-11523
reibe	-11524
wagen	-11525
▁Back	-11526
▁Wein	-11527
▁trig	-11528
hängen	-11529
kelett	-11530
opping	-11531
punkte	-11532
quelle	-11533
▁Chaos	-11534
▁House	-11535
▁Humor	-11536
▁Parad	-11537
▁Wagen	-11538
▁anget	-11539
▁pharm	-11540
▁roads	-11541
▁verhe	-11542
ishment	-11543
▁Anwend	-11544
▁Grippe	-11545
▁Option	-11546
▁acting	-11547
▁anhand	-11548
▁assist	-11549
▁golden	-11550
▁laptop	-11551
▁neuron	-11552
▁rocket	-11553
ktivität	-11554
▁Annahme	-11555
▁Musiker	-11556
▁attacks	-11557
▁bekomme	-11558
▁diction	-11559
▁discipl	-11560
▁falling	-11561
▁kreativ	-11562
probieren	-11563
▁Benjamin	-11564
▁Webseite	-11565
▁concrete	-11566
▁dramatic	-11567
▁geholfen	-11568
▁hinunter	-11569
▁Geräusche	-11570
▁Kontinent	-11571
▁algorithm	-11572
▁beobachte	-11573
▁berichten	-11574
▁centuries	-11575
▁darstellt	-11576
▁kostenlos	-11577
▁narrative	-11578
▁processing	-11579
▁dargestellt	-11580
▁grundsätzlich	-11581
je	-11582
dis	-11583
opy	-11584
oto	-11585
sst	-11586
▁36	-11587
ania	-11588
irat	-11589
look	-11590
ocal	-11591
rise	-11592
utze	-11593
älde	-11594
▁Bol	-11595
▁Ruf	-11596
▁anx	-11597
being	-11598
lines	-11599
obile	-11600
opard	-11601
orous	-11602
umble	-11603
zepte	-11604
▁Prop	-11605
▁Snow	-11606
▁belo	-11607
▁hind	-11608
▁zoom	-11609
bücher	-11610
profit	-11611
schiff	-11612
▁Cyber	-11613
▁Folie	-11614
▁Samen	-11615
▁charm	-11616
▁films	-11617
▁renew	-11618
▁staat	-11619
▁wofür	-11620
ategien	-11621
▁Daniel	-11622
▁Löcher	-11623
▁erhöht	-11624
▁fingen	-11625
▁patent	-11626
▁survey	-11627
cription	-11628
vermögen	-11629
▁Anstatt	-11630
▁besorgt	-11631
▁dauerte	-11632
▁einiges	-11633
▁equally	-11634
▁figures	-11635
▁therapy	-11636
▁unglück	-11637
▁visible	-11638
▁Russland	-11639
▁bemerkte	-11640
▁overwhel	-11641
▁proteins	-11642
▁swimming	-11643
▁Wachstums	-11644
▁zufrieden	-11645
▁Gedächtnis	-11646
▁beibringen	-11647
▁controlled	-11648
▁weltweiten	-11649
▁durchführen	-11650
▁potentially	-11651
▁Präsentation	-11652
▁beispielsweise	-11653
Sh	-11654
For	-11655
ixt	-11656
avel	-11657
burg	-11658
gefü	-11659
▁Jud	-11660
▁Lib	-11661
▁Mer	-11662
▁Out	-11663
▁spo	-11664
hetic	-11665
ismen	-11666
retch	-11667
▁2050	-11668
▁Balk	-11669
▁Beij	-11670
▁Eier	-11671
▁Kart	-11672
▁Krit	-11673
▁Ohne	-11674
▁Only	-11675
▁Time	-11676
▁cast	-11677
▁lens	-11678
▁sets	-11679
karten	-11680
▁Conne	-11681
▁Magie	-11682
▁Ohren	-11683
▁River	-11684
▁Roman	-11685
▁Spann	-11686
▁Zweif	-11687
▁blaue	-11688
▁frank	-11689
▁umher	-11690
rechend	-11691
▁Besuch	-11692
▁Nobody	-11693
▁Studio	-11694
▁Unfall	-11695
▁achten	-11696
▁button	-11697
▁critic	-11698
▁landen	-11699
▁merken	-11700
▁tempor	-11701
▁trafen	-11702
▁wander	-11703
ologists	-11704
▁Meister	-11705
▁burning	-11706
▁starben	-11707
▁suppose	-11708
▁zweimal	-11709
▁Physiker	-11710
▁Research	-11711
▁Resultat	-11712
▁presence	-11713
▁somewhat	-11714
▁tracking	-11715
oberfläche	-11716
▁Potenzial	-11717
▁erwachsen	-11718
▁vertrauen	-11719
▁confidence	-11720
▁moralische	-11721
▁percentage	-11722
▁Konsequenzen	-11723
▁irgendjemand	-11724
7.	-11725
CA	-11726
pth	-11727
▁ok	-11728
ihad	-11729
isph	-11730
▁Sup	-11731
▁mur	-11732
burgh	-11733
menge	-11734
telef	-11735
▁Abra	-11736
▁Cons	-11737
▁Cont	-11738
▁Flie	-11739
▁Gibt	-11740
▁Grün	-11741
▁Vent	-11742
▁Voll	-11743
▁horm	-11744
▁pill	-11745
▁silk	-11746
elling	-11747
gebiet	-11748
iertes	-11749
iosity	-11750
rücken	-11751
▁Bevor	-11752
▁Hallo	-11753
▁Inner	-11754
▁Prize	-11755
▁clock	-11756
▁globe	-11757
▁sowas	-11758
▁städt	-11759
▁upper	-11760
chester	-11761
sterben	-11762
systems	-11763
ultural	-11764
▁Budget	-11765
▁Kanada	-11766
▁Nelson	-11767
▁boring	-11768
▁freien	-11769
▁reisen	-11770
▁Nutzung	-11771
▁drücken	-11772
▁offenen	-11773
▁verlang	-11774
▁Anführer	-11775
▁Antibiot	-11776
▁Hunderte	-11777
▁creature	-11778
▁springen	-11779
▁Angestell	-11780
▁Ernährung	-11781
▁Spielzeug	-11782
▁bemerkens	-11783
▁permanent	-11784
▁schwarzen	-11785
▁Jahrzehnte	-11786
▁Schließlich	-11787
▁Sonnenlicht	-11788
▁voneinander	-11789
ahrscheinlich	-11790
▁presentation	-11791
▁unterrichten	-11792
▁verschwunden	-11793
▁conversations	-11794
▁psychological	-11795
▁veröffentlich	-11796
Ne	-11797
Sp	-11798
li	-11799
osn	-11800
zne	-11801
üse	-11802
▁Ep	-11803
▁Üb	-11804
▁Mur	-11805
behör	-11806
unate	-11807
veled	-11808
▁June	-11809
▁Tony	-11810
▁club	-11811
▁gewö	-11812
▁icon	-11813
▁kalt	-11814
▁pump	-11815
▁subs	-11816
ansion	-11817
▁Bronx	-11818
▁Clint	-11819
▁Eisen	-11820
▁Fokus	-11821
▁Jones	-11822
▁adopt	-11823
▁cents	-11824
▁enden	-11825
▁rooms	-11826
▁stärk	-11827
▁woher	-11828
identen	-11829
▁Mangel	-11830
▁Number	-11831
▁Status	-11832
▁autism	-11833
▁forder	-11834
▁hinauf	-11835
▁marine	-11836
▁Aussage	-11837
▁beenden	-11838
▁closely	-11839
▁defined	-11840
▁options	-11841
▁stoppen	-11842
▁trinken	-11843
▁unknown	-11844
▁Ereignis	-11845
▁Erlebnis	-11846
▁subjects	-11847
▁umfassen	-11848
▁verstand	-11849
▁Aufnahmen	-11850
▁Programme	-11851
▁Schicksal	-11852
▁Something	-11853
▁betreiben	-11854
▁providing	-11855
▁Darstellung	-11856
▁Inspiration	-11857
▁explanation	-11858
▁transformed	-11859
▁implications	-11860
ava	-11861
▁RB	-11862
▁li	-11863
keys	-11864
zykl	-11865
▁Bre	-11866
child	-11867
gence	-11868
iture	-11869
▁Bern	-11870
▁Blau	-11871
▁Vari	-11872
▁diam	-11873
▁fake	-11874
▁frem	-11875
▁furn	-11876
▁load	-11877
▁plot	-11878
eitern	-11879
modell	-11880
osphor	-11881
▁Räume	-11882
▁Shang	-11883
▁chose	-11884
▁depth	-11885
▁fehlt	-11886
▁ridic	-11887
▁songs	-11888
▁teilt	-11889
▁trend	-11890
▁voran	-11891
▁whist	-11892
artigen	-11893
inction	-11894
▁Fellow	-11895
▁Zauber	-11896
▁europä	-11897
▁filter	-11898
▁flower	-11899
▁monkey	-11900
▁writer	-11901
aneously	-11902
leistung	-11903
▁Debatte	-11904
▁Verwand	-11905
▁Vorhers	-11906
▁circuit	-11907
▁comment	-11908
▁decline	-11909
▁designs	-11910
▁outcome	-11911
▁quarter	-11912
▁solange	-11913
▁treiben	-11914
▁unteren	-11915
▁Argument	-11916
▁Freiwill	-11917
▁Männchen	-11918
▁Regionen	-11919
▁Versuche	-11920
▁abstract	-11921
▁accurate	-11922
▁director	-11923
▁election	-11924
▁existing	-11925
▁genügend	-11926
▁physikal	-11927
▁Computern	-11928
▁Verstehen	-11929
▁betroffen	-11930
▁einfaches	-11931
▁enthalten	-11932
▁versteckt	-11933
▁Ereignisse	-11934
▁electronic	-11935
▁sogenannte	-11936
▁speziellen	-11937
▁surrounded	-11938
▁transplant	-11939
▁Ausstellung	-11940
▁appropriate	-11941
▁biologische	-11942
▁Unfortunately	-11943
▁bemerkenswert	-11944
▁circumstances	-11945
obi	-11946
▁Tö	-11947
adic	-11948
erte	-11949
gten	-11950
lass	-11951
olds	-11952
ooth	-11953
oust	-11954
▁Hat	-11955
▁Jun	-11956
▁Ted	-11957
▁odd	-11958
aktor	-11959
barer	-11960
imine	-11961
point	-11962
preis	-11963
tritt	-11964
▁Song	-11965
▁bell	-11966
▁hack	-11967
▁hook	-11968
▁tack	-11969
dienst	-11970
phones	-11971
ranche	-11972
▁Erfol	-11973
▁Feind	-11974
▁angem	-11975
▁bedro	-11976
▁brill	-11977
▁error	-11978
▁plans	-11979
▁platz	-11980
▁split	-11981
▁wisst	-11982
ahnsinn	-11983
▁Eigent	-11984
▁Kindes	-11985
▁Märkte	-11986
▁Strand	-11987
▁deaths	-11988
▁grosse	-11989
▁grünen	-11990
▁handle	-11991
▁heaven	-11992
▁hörten	-11993
▁orange	-11994
▁schlau	-11995
▁stayed	-11996
▁suchte	-11997
▁tested	-11998
▁wirken	-11999
▁worauf	-12000
▁breathe	-12001
▁clothes	-12002
▁erkannt	-12003
▁glamour	-12004
▁hielten	-12005
▁housing	-12006
▁overall	-12007
▁remains	-12008
▁reverse	-12009
▁tonight	-12010
erkennung	-12011
▁Kampagne	-12012
▁begegnen	-12013
▁infected	-12014
▁reagiert	-12015
▁schreibt	-12016
▁transfer	-12017
▁verdient	-12018
▁villages	-12019
▁wertvoll	-12020
▁wireless	-12021
▁Computers	-12022
▁authority	-12023
▁bekämpfen	-12024
▁explained	-12025
▁operation	-12026
▁sensitive	-12027
unternehmen	-12028
▁antwortete	-12029
▁capitalism	-12030
▁productive	-12031
▁proportion	-12032
▁applications	-12033
▁organisieren	-12034
"?	-12035
tä	-12036
erd	-12037
zut	-12038
coln	-12039
holz	-12040
icit	-12041
tein	-12042
uben	-12043
▁Dig	-12044
▁Dör	-12045
▁Syn	-12046
▁kop	-12047
▁rie	-12048
itors	-12049
ogram	-12050
olate	-12051
▁Come	-12052
▁Gulf	-12053
▁Sant	-12054
▁cave	-12055
▁dens	-12056
▁ears	-12057
▁hers	-12058
▁imit	-12059
▁impl	-12060
▁lebe	-12061
fangen	-12062
usions	-12063
▁Noten	-12064
▁Saudi	-12065
▁Story	-12066
▁embed	-12067
rüstung	-12068
sprache	-12069
systeme	-12070
▁Detail	-12071
▁Square	-12072
▁border	-12073
▁dunkel	-12074
▁extens	-12075
▁involv	-12076
▁tiefer	-12077
zukommen	-12078
▁Mandela	-12079
▁Schaden	-12080
▁beliebt	-12081
▁nannten	-12082
▁Geschenk	-12083
▁Krankenh	-12084
▁Weisheit	-12085
▁contrast	-12086
▁measured	-12087
▁determine	-12088
▁gebrochen	-12089
▁kreativen	-12090
▁langsamer	-12091
▁spiritual	-12092
▁technique	-12093
▁teilweise	-12094
▁Frankreich	-12095
▁Geburtstag	-12096
▁Restaurant	-12097
▁ausgesetzt	-12098
▁verglichen	-12099
▁exploration	-12100
▁Bevölkerungs	-12101
▁entrepreneur	-12102
geschwindigkeit	-12103
dam	-12104
ault	-12105
bern	-12106
förm	-12107
gent	-12108
gren	-12109
iser	-12110
izza	-12111
ouds	-12112
rets	-12113
▁Nam	-12114
Spiel	-12115
iking	-12116
ormen	-12117
polit	-12118
unruh	-12119
vable	-12120
üpfen	-12121
▁Beit	-12122
▁Ford	-12123
▁Serv	-12124
▁flew	-12125
▁gras	-12126
▁merk	-12127
▁outc	-12128
▁thin	-12129
sunami	-12130
ätzung	-12131
ördert	-12132
▁Armee	-12133
▁Optim	-12134
▁beige	-12135
▁memor	-12136
▁stere	-12137
▁weigh	-12138
▁weiße	-12139
schicht	-12140
▁Bundes	-12141
▁Weiter	-12142
▁assume	-12143
▁gelang	-12144
▁heilen	-12145
▁limits	-12146
▁papers	-12147
▁suffer	-12148
▁whales	-12149
icherung	-12150
tausende	-12151
▁Gericht	-12152
▁Quellen	-12153
▁Schicht	-12154
▁combine	-12155
▁frequen	-12156
▁mosquit	-12157
▁mystery	-12158
▁neugier	-12159
▁nowhere	-12160
▁sensors	-12161
▁tatsäch	-12162
▁administ	-12163
▁horrible	-12164
▁symptoms	-12165
▁untersch	-12166
▁Christmas	-12167
▁betrieben	-12168
▁derselben	-12169
▁reduziert	-12170
legenheiten	-12171
▁Entfernung	-12172
▁Erwachsene	-12173
▁Unterricht	-12174
▁Wettbewerb	-12175
▁appreciate	-12176
▁behavioral	-12177
▁Wirtschafts	-12178
▁grundlegend	-12179
mo	-12180
rid	-12181
Yeah	-12182
cean	-12183
erie	-12184
pern	-12185
▁Box	-12186
▁Ron	-12187
▁Roy	-12188
▁Sah	-12189
▁Sec	-12190
▁Tum	-12191
▁dok	-12192
okuss	-12193
think	-12194
▁2009	-12195
▁Bell	-12196
▁Hong	-12197
▁News	-12198
▁bike	-12199
▁elev	-12200
▁grat	-12201
▁item	-12202
▁loud	-12203
▁melt	-12204
▁milk	-12205
▁suic	-12206
▁wash	-12207
astern	-12208
linien	-12209
▁Arist	-12210
▁Wegen	-12211
▁angry	-12212
▁bones	-12213
▁curve	-12214
▁datab	-12215
▁plate	-12216
▁proto	-12217
▁resil	-12218
▁skept	-12219
▁taste	-12220
plicity	-12221
▁Aktion	-12222
▁ausger	-12223
▁genius	-12224
▁joined	-12225
▁nachts	-12226
▁puzzle	-12227
▁schock	-12228
▁script	-12229
▁Gemälde	-12230
▁Kameras	-12231
▁Verkauf	-12232
▁doppelt	-12233
▁embrace	-12234
▁robotic	-12235
▁samples	-12236
▁weshalb	-12237
▁bewirken	-12238
▁collapse	-12239
▁dokument	-12240
▁Ingenieur	-12241
▁basierend	-12242
▁beteiligt	-12243
▁ernsthaft	-12244
▁zunehmend	-12245
▁Regierungs	-12246
▁architects	-12247
▁economists	-12248
▁laboratory	-12249
▁challenging	-12250
▁nachgedacht	-12251
▁kontrolliert	-12252
Bl	-12253
ga	-12254
jo	-12255
ye	-12256
Ein	-12257
kor	-12258
las	-12259
yon	-12260
▁DV	-12261
▁ew	-12262
alys	-12263
iene	-12264
ihen	-12265
jahr	-12266
park	-12267
umer	-12268
ziel	-12269
ärme	-12270
▁Lam	-12271
▁Lee	-12272
▁McC	-12273
▁Sud	-12274
▁cha	-12275
brech	-12276
eseit	-12277
▁Live	-12278
▁Witz	-12279
▁mush	-12280
▁schn	-12281
iguren	-12282
istics	-12283
sphäre	-12284
▁Sarah	-12285
▁angel	-12286
▁logic	-12287
▁lying	-12288
▁walks	-12289
▁wirkt	-12290
ruments	-12291
uilding	-12292
▁Abfall	-12293
▁Handys	-12294
▁deploy	-12295
▁höhere	-12296
▁linked	-12297
▁relate	-12298
▁remove	-12299
ieinhalb	-12300
onnected	-12301
▁100.000	-12302
▁Spezial	-12303
▁bestand	-12304
▁contrib	-12305
▁evening	-12306
▁gründen	-12307
▁mittels	-12308
▁recover	-12309
▁allowing	-12310
▁wherever	-12311
▁Basically	-12312
▁statement	-12313
▁storytell	-12314
▁bezeichnet	-12315
▁mechanical	-12316
▁Erwartungen	-12317
▁instruments	-12318
▁vergangenen	-12319
▁Entdeckungen	-12320
▁insbesondere	-12321
OL	-12322
ado	-12323
gly	-12324
irk	-12325
mot	-12326
▁55	-12327
▁SP	-12328
▁Up	-12329
▁lö	-12330
ming	-12331
nach	-12332
oned	-12333
rait	-12334
züge	-12335
älle	-12336
▁Kra	-12337
▁Rit	-12338
▁ack	-12339
▁aim	-12340
esity	-12341
fällt	-12342
rated	-12343
weich	-12344
▁Ehem	-12345
▁Feyn	-12346
▁Jenn	-12347
▁Klav	-12348
▁Lego	-12349
▁Ment	-12350
▁Mosk	-12351
▁Stäm	-12352
▁Zust	-12353
▁acts	-12354
▁cord	-12355
▁disg	-12356
▁nose	-12357
▁pool	-12358
▁root	-12359
bilder	-12360
▁Angeb	-12361
▁Autom	-12362
▁Flüss	-12363
▁Tiefe	-12364
▁appar	-12365
▁diver	-12366
▁faced	-12367
▁hotel	-12368
▁sight	-12369
reibung	-12370
▁Before	-12371
▁Darauf	-12372
▁Flügel	-12373
▁Golden	-12374
▁Stücke	-12375
▁latest	-12376
▁pollen	-12377
▁unterr	-12378
▁volume	-12379
▁überqu	-12380
▁Aspekte	-12381
▁Indones	-12382
▁Krieges	-12383
▁Lincoln	-12384
▁Silicon	-12385
▁aufgere	-12386
▁dancing	-12387
▁fingers	-12388
▁flowers	-12389
▁gekauft	-12390
▁poorest	-12391
scheinend	-12392
▁Brooklyn	-12393
▁Shanghai	-12394
▁anschaut	-12395
▁besessen	-12396
▁engaging	-12397
▁paradigm	-12398
▁provided	-12399
▁unmittel	-12400
▁wondered	-12401
▁bezüglich	-12402
▁disorders	-12403
▁footprint	-12404
▁gentlemen	-12405
▁standards	-12406
▁versorgen	-12407
▁Sichtweise	-12408
▁irgendeine	-12409
▁Algorithmen	-12410
▁educational	-12411
▁Lebenserwart	-12412
▁Überraschung	-12413
wissenschaften	-12414
▁Klassenzimmer	-12415
▁veröffentlichen	-12416
irt	-12417
lag	-12418
mma	-12419
yan	-12420
▁Av	-12421
gelt	-12422
hour	-12423
illy	-12424
ione	-12425
zten	-12426
▁god	-12427
force	-12428
läuft	-12429
night	-12430
opath	-12431
stage	-12432
stuhl	-12433
▁Fert	-12434
▁Rick	-12435
▁lets	-12436
▁obst	-12437
▁pink	-12438
heorie	-12439
jected	-12440
leiten	-12441
rucken	-12442
▁Kateg	-12443
▁Lasst	-12444
▁McDon	-12445
▁Party	-12446
▁Scham	-12447
▁knapp	-12448
▁plays	-12449
▁stone	-12450
▁vital	-12451
▁Arthur	-12452
▁Presse	-12453
▁Schach	-12454
▁Schwer	-12455
▁Willen	-12456
▁corals	-12457
▁erneut	-12458
▁gigant	-12459
▁sensor	-12460
▁slides	-12461
▁spüren	-12462
▁Schwarz	-12463
▁beunruh	-12464
▁classes	-12465
▁corresp	-12466
▁ergeben	-12467
▁metabol	-12468
▁musikal	-12469
▁respekt	-12470
▁verstär	-12471
iolumines	-12472
▁Gebäuden	-12473
▁Proteine	-12474
▁Schweden	-12475
▁Zeitraum	-12476
▁floating	-12477
▁genießen	-12478
▁glaubten	-12479
▁mehreren	-12480
▁philosop	-12481
▁verblüff	-12482
▁verliert	-12483
▁Verbrauch	-12484
▁construct	-12485
▁economies	-12486
▁practices	-12487
▁umzugehen	-12488
▁Bibliothek	-12489
▁Teilnehmer	-12490
▁Zerstörung	-12491
▁wenigstens	-12492
▁Dimensionen	-12493
▁Psychologie	-12494
▁Verbreitung	-12495
▁application	-12496
Me	-12497
oz	-12498
Kon	-12499
cus	-12500
▁Hi	-12501
▁LG	-12502
Welt	-12503
anzt	-12504
frau	-12505
greg	-12506
ifiz	-12507
ippe	-12508
iums	-12509
nütz	-12510
vely	-12511
üter	-12512
▁Zus	-12513
▁aer	-12514
▁Ära	-12515
atson	-12516
hängt	-12517
ipfel	-12518
kular	-12519
ündet	-12520
▁Acht	-12521
▁Biom	-12522
▁Male	-12523
▁Mamm	-12524
▁Schm	-12525
▁army	-12526
▁barr	-12527
▁bene	-12528
▁busy	-12529
▁loop	-12530
asters	-12531
ereien	-12532
werken	-12533
▁Detro	-12534
▁boxes	-12535
▁fixed	-12536
▁rocks	-12537
▁thick	-12538
esented	-12539
ichtete	-12540
illance	-12541
▁Fläche	-12542
▁Metall	-12543
▁Schalt	-12544
▁dienen	-12545
▁extent	-12546
▁height	-12547
▁lebens	-12548
▁lehren	-12549
▁secure	-12550
▁severe	-12551
▁traged	-12552
▁unlike	-12553
handlung	-12554
ücksicht	-12555
▁Feynman	-12556
▁Kapitel	-12557
▁causing	-12558
▁feeding	-12559
▁funding	-12560
▁library	-12561
▁pushing	-12562
▁solving	-12563
zuschauen	-12564
▁Kleidung	-12565
▁Schlacht	-12566
▁lebenden	-12567
▁lebendig	-12568
▁momentan	-12569
▁speziell	-12570
▁Christian	-12571
▁folgenden	-12572
▁folgendes	-12573
krankheiten	-12574
▁consistent	-12575
▁eingeladen	-12576
▁schwierige	-12577
▁Instrumente	-12578
▁verursachen	-12579
▁wunderbaren	-12580
▁ursprünglich	-12581
▁grundlegenden	-12582
IS	-12583
öd	-12584
Ind	-12585
eda	-12586
hum	-12587
wis	-12588
▁zü	-12589
derm	-12590
otes	-12591
▁9/1	-12592
▁Acc	-12593
acing	-12594
agger	-12595
aktiv	-12596
attoo	-12597
hagen	-12598
ignet	-12599
uting	-12600
▁Naja	-12601
▁Wann	-12602
▁gran	-12603
▁hilf	-12604
▁kons	-12605
▁nest	-12606
▁tent	-12607
▁trug	-12608
angene	-12609
iology	-12610
rition	-12611
▁Beute	-12612
▁Latin	-12613
▁Wicht	-12614
▁dozen	-12615
▁dress	-12616
▁pitch	-12617
▁prize	-12618
▁uncom	-12619
▁veran	-12620
▁whale	-12621
▁woran	-12622
mittelt	-12623
örtlich	-12624
▁Hypoth	-12625
▁Machen	-12626
▁absorb	-12627
▁clouds	-12628
▁hängen	-12629
▁owners	-12630
▁spinal	-12631
bekommen	-12632
ubringen	-12633
▁Muslims	-12634
▁Stewart	-12635
▁Zweifel	-12636
▁careful	-12637
▁diverse	-12638
▁earthqu	-12639
▁elegant	-12640
▁fluores	-12641
▁gezogen	-12642
▁harvest	-12643
▁letzter	-12644
▁parking	-12645
▁surgeon	-12646
▁vaccine	-12647
▁violent	-12648
▁younger	-12649
▁Ägypten	-12650
▁infinite	-12651
▁policies	-12652
▁schauten	-12653
▁breathing	-12654
▁identical	-12655
▁intellekt	-12656
▁inequality	-12657
▁wahrnehmen	-12658
gesellschaft	-12659
▁entscheidend	-12660
▁hinterlassen	-12661
▁interactions	-12662
fäh	-12663
sex	-12664
▁ah	-12665
ucks	-12666
▁Moz	-12667
▁Nic	-12668
▁Ten	-12669
▁une	-12670
insel	-12671
istet	-12672
lings	-12673
▁Akte	-12674
▁Robo	-12675
▁Verm	-12676
▁dign	-12677
▁hieß	-12678
▁reco	-12679
▁stro	-12680
▁zuzu	-12681
uchtet	-12682
winkel	-12683
▁1.000	-12684
▁About	-12685
▁Arzne	-12686
▁Brand	-12687
▁Bruno	-12688
▁Decke	-12689
▁Dynam	-12690
▁alltä	-12691
▁grain	-12692
▁grüne	-12693
artment	-12694
schauen	-12695
▁Chirur	-12696
▁Futter	-12697
▁Please	-12698
▁angeht	-12699
▁angene	-12700
▁deiner	-12701
▁interc	-12702
▁nervös	-12703
▁offers	-12704
▁repair	-12705
▁spider	-12706
funktion	-12707
▁Designs	-12708
▁Systems	-12709
▁Taschen	-12710
▁classic	-12711
▁frankly	-12712
▁zurecht	-12713
▁Erdbeben	-12714
▁Trotzdem	-12715
▁asteroid	-12716
▁drinking	-12717
▁erfassen	-12718
▁gerettet	-12719
▁gewisser	-12720
▁obsessed	-12721
▁psychiat	-12722
▁studiert	-12723
▁synchron	-12724
▁wechseln	-12725
▁begreifen	-12726
▁definiert	-12727
▁measuring	-12728
▁reference	-12729
▁selection	-12730
▁unterwegs	-12731
▁Ingenieure	-12732
▁hinzufügen	-12733
▁Herstellung	-12734
▁interactive	-12735
Wer	-12736
ölk	-12737
▁2:	-12738
▁20,	-12739
▁pin	-12740
ipher	-12741
▁2006	-12742
▁Infe	-12743
▁chip	-12744
▁choc	-12745
▁phil	-12746
ichtum	-12747
ilemma	-12748
onomie	-12749
▁Chile	-12750
▁Große	-12751
▁Indem	-12752
▁Rwand	-12753
▁flood	-12754
▁teams	-12755
fliegen	-12756
▁Ethiop	-12757
▁Hacker	-12758
▁Leiter	-12759
▁Schnee	-12760
▁Schuhe	-12761
▁agreed	-12762
▁ausser	-12763
▁orient	-12764
▁robust	-12765
▁stands	-12766
▁struck	-12767
abilität	-12768
ervative	-12769
issionen	-12770
▁Beijing	-12771
▁Detroit	-12772
▁anticip	-12773
▁command	-12774
▁constra	-12775
▁diagram	-12776
▁mammals	-12777
▁monkeys	-12778
▁windows	-12779
▁Carolina	-12780
▁Everyone	-12781
▁Faktoren	-12782
▁equation	-12783
▁illusion	-12784
▁instruct	-12785
ussendlich	-12786
▁Denkweise	-12787
▁aufgeregt	-12788
▁bedeutete	-12789
▁celebrate	-12790
▁consumers	-12791
▁continued	-12792
▁increases	-12793
▁niemanden	-12794
technologie	-12795
zeichnungen	-12796
▁Reaktionen	-12797
▁journalist	-12798
▁philosophy	-12799
▁unsichtbar	-12800
▁elektrische	-12801
▁inspirieren	-12802
▁recognition	-12803
▁vorbereitet	-12804
▁wiederholen	-12805
issenschaftler	-12806
But	-12807
eed	-12808
▁$1	-12809
▁Et	-12810
▁SW	-12811
▁ow	-12812
pfel	-12813
rein	-12814
walk	-12815
ätte	-12816
▁30-	-12817
▁350	-12818
▁mim	-12819
▁rum	-12820
ansas	-12821
onien	-12822
vater	-12823
▁Dsch	-12824
▁Vert	-12825
▁mice	-12826
▁seas	-12827
decken	-12828
▁Congo	-12829
▁Kurve	-12830
▁Teams	-12831
▁Toten	-12832
▁alarm	-12833
▁imper	-12834
▁mobil	-12835
▁phase	-12836
▁shell	-12837
▁wovon	-12838
▁Faktor	-12839
▁Gemüse	-12840
▁Pollen	-12841
▁Rechts	-12842
▁Watson	-12843
▁column	-12844
▁garant	-12845
▁hunger	-12846
▁placed	-12847
▁rechte	-12848
aufnahme	-12849
▁Verteid	-12850
▁carried	-12851
▁erwarte	-12852
▁existed	-12853
▁offered	-12854
▁Chinesen	-12855
▁November	-12856
▁Problems	-12857
▁Theorien	-12858
▁Training	-12859
▁distinct	-12860
▁domestic	-12861
▁grateful	-12862
▁organism	-12863
▁overcome	-12864
▁penguins	-12865
▁Geschäfte	-12866
▁Projekten	-12867
▁Schmerzen	-12868
▁arguments	-12869
▁lifestyle	-12870
▁telephone	-12871
▁Heutzutage	-12872
▁Mobiltelef	-12873
▁Richtungen	-12874
▁Transparen	-12875
▁connecting	-12876
▁greenhouse	-12877
▁performing	-12878
▁Änderungen	-12879
▁cooperation	-12880
▁distributed	-12881
▁Privatsphäre	-12882
▁automatically	-12883
▁Lebenserwartung	-12884
ETI	-12885
mat	-12886
zig	-12887
▁4,	-12888
▁ED	-12889
▁JH	-12890
anes	-12891
etti	-12892
etts	-12893
uity	-12894
▁10.	-12895
▁20-	-12896
▁DVD	-12897
▁Geh	-12898
▁ren	-12899
▁zit	-12900
▁Übr	-12901
agnet	-12902
gespr	-12903
ognit	-12904
otter	-12905
rimin	-12906
seher	-12907
▁Bord	-12908
▁Gall	-12909
▁boom	-12910
▁cand	-12911
▁dict	-12912
▁ours	-12913
▁plug	-12914
▁stol	-12915
fische	-12916
▁Anruf	-12917
▁Asien	-12918
▁Erste	-12919
▁Meere	-12920
▁Schok	-12921
▁bombs	-12922
▁grows	-12923
▁mikro	-12924
▁polio	-12925
▁sport	-12926
▁style	-12927
▁zählt	-12928
prozess	-12929
▁Ganzen	-12930
▁Rezept	-12931
▁Sicher	-12932
▁Sweden	-12933
▁Wahlen	-12934
▁beherr	-12935
▁dauern	-12936
▁devast	-12937
▁mainly	-12938
▁murder	-12939
▁prepar	-12940
▁sphere	-12941
▁späten	-12942
▁Ausgang	-12943
▁Finally	-12944
▁Neugier	-12945
▁Verlauf	-12946
▁obesity	-12947
▁raising	-12948
▁schmerz	-12949
operation	-12950
▁Dokument	-12951
▁Erinnern	-12952
▁Gegenden	-12953
▁Leonardo	-12954
▁Remember	-12955
▁ausgeben	-12956
▁ernähren	-12957
▁getrennt	-12958
▁outcomes	-12959
▁printing	-12960
▁transmit	-12961
▁zurückge	-12962
▁Innerhalb	-12963
▁component	-12964
▁irgendwel	-12965
▁recording	-12966
▁spreading	-12967
▁Brustkrebs	-12968
▁directions	-12969
▁eingeführt	-12970
▁investiert	-12971
▁resistance	-12972
▁eigentliche	-12973
▁Weltbevölkerung	-12974
SP	-12975
bir	-12976
bum	-12977
eli	-12978
oca	-12979
rin	-12980
▁id	-12981
afel	-12982
aken	-12983
klin	-12984
real	-12985
rump	-12986
uste	-12987
▁BIP	-12988
▁Bor	-12989
▁Sea	-12990
▁anb	-12991
▁twe	-12992
iolet	-12993
lesen	-12994
ortet	-12995
rance	-12996
▁Dame	-12997
▁Knie	-12998
▁Läch	-12999
▁Zehn	-13000
▁cash	-13001
▁desk	-13002
▁excl	-13003
▁jail	-13004
▁lung	-13005
▁prem	-13006
▁seht	-13007
▁sque	-13008
▁verz	-13009
▁zone	-13010
fläche	-13011
gnügen	-13012
ktions	-13013
▁Larry	-13014
▁abuse	-13015
▁decre	-13016
▁fried	-13017
▁paras	-13018
▁rufen	-13019
ektiven	-13020
station	-13021
▁Berlin	-13022
▁Joseph	-13023
▁Kredit	-13024
▁deinem	-13025
▁fokuss	-13026
▁liebte	-13027
▁toilet	-13028
▁zufäll	-13029
pendence	-13030
▁Darüber	-13031
▁Erfolgs	-13032
▁Redwood	-13033
▁borders	-13034
▁channel	-13035
▁niedrig	-13036
▁schlägt	-13037
▁starken	-13038
▁unbelie	-13039
▁Ursprung	-13040
▁anhalten	-13041
▁anpassen	-13042
▁besuchte	-13043
▁wünschte	-13044
▁Bedrohung	-13045
▁Geschmack	-13046
▁Parkinson	-13047
▁Weltkrieg	-13048
▁corporate	-13049
▁exploring	-13050
▁sculpture	-13051
▁Dunkelheit	-13052
▁Geographic	-13053
▁Verwendung	-13054
▁genetische	-13055
▁Antibiotika	-13056
▁Eigenschaft	-13057
▁Terroristen	-13058
▁beigebracht	-13059
▁berücksicht	-13060
▁grandfather	-13061
▁populations	-13062
▁represented	-13063
▁dramatically	-13064
▁fantastische	-13065
▁surveillance	-13066
▁zurückkehren	-13067
BA	-13068
brü	-13069
ema	-13070
ila	-13071
mod	-13072
ärt	-13073
▁31	-13074
▁cm	-13075
ague	-13076
aint	-13077
dach	-13078
gewe	-13079
imps	-13080
kord	-13081
älte	-13082
▁MRI	-13083
▁sed	-13084
ortex	-13085
▁Base	-13086
▁Nähr	-13087
▁bold	-13088
▁naja	-13089
▁scar	-13090
▁stun	-13091
System	-13092
auften	-13093
called	-13094
cisely	-13095
ederal	-13096
erlich	-13097
würdig	-13098
ündung	-13099
▁Berge	-13100
▁Misch	-13101
▁Moore	-13102
▁Polio	-13103
▁Proto	-13104
▁Tauch	-13105
▁enemy	-13106
▁harte	-13107
▁highl	-13108
▁persu	-13109
iveness	-13110
▁Albert	-13111
▁County	-13112
▁Econom	-13113
▁Flagge	-13114
▁Konsum	-13115
▁Oberfl	-13116
▁Shakes	-13117
▁ausges	-13118
▁proced	-13119
▁schlug	-13120
▁tanzen	-13121
▁vorhin	-13122
▁worker	-13123
anischen	-13124
computer	-13125
stellten	-13126
▁Inneren	-13127
▁January	-13128
▁Nothing	-13129
▁angehen	-13130
▁awesome	-13131
▁besucht	-13132
▁collaps	-13133
▁extinct	-13134
▁receive	-13135
▁savings	-13136
▁stretch	-13137
▁traurig	-13138
▁Diabetes	-13139
▁Systemen	-13140
▁brothers	-13141
▁eingehen	-13142
▁elephant	-13143
▁gesunden	-13144
▁hardware	-13145
▁particle	-13146
▁properly	-13147
▁romantic	-13148
▁treating	-13149
▁Afrikaner	-13150
▁Plötzlich	-13151
▁animation	-13152
▁paintings	-13153
▁presented	-13154
▁spezielle	-13155
▁fascinated	-13156
▁kulturelle	-13157
▁ländlichen	-13158
▁Wasserstoff	-13159
▁antibiotics	-13160
▁moralischen	-13161
▁präsentiert	-13162
▁sogenannten	-13163
▁conventional	-13164
▁expectations	-13165
▁konfrontiert	-13166
▁Normalerweise	-13167
▁dreidimension	-13168
▁verschiedener	-13169
▁außergewöhnlich	-13170
--	-13171
Wo	-13172
Gen	-13173
hof	-13174
ißt	-13175
▁0,	-13176
▁42	-13177
▁IM	-13178
▁Wi	-13179
lers	-13180
ocke	-13181
onna	-13182
opes	-13183
prom	-13184
rist	-13185
ückt	-13186
▁Had	-13187
▁IBM	-13188
▁Oxy	-13189
▁Uni	-13190
▁cas	-13191
▁fan	-13192
▁prü	-13193
▁raw	-13194
aches	-13195
folgt	-13196
legte	-13197
llung	-13198
teils	-13199
änner	-13200
▁Dist	-13201
▁Ross	-13202
▁Sher	-13203
▁Shir	-13204
▁guar	-13205
▁poly	-13206
▁sexy	-13207
▁tube	-13208
utzend	-13209
öntgen	-13210
▁Block	-13211
▁Democ	-13212
▁Franz	-13213
▁Immun	-13214
▁Kongo	-13215
▁atmen	-13216
▁explo	-13217
▁scary	-13218
▁spark	-13219
▁stack	-13220
▁weißt	-13221
aktoren	-13222
related	-13223
stehung	-13224
▁Laufen	-13225
▁Rechen	-13226
▁Schild	-13227
▁Singap	-13228
▁Tasman	-13229
▁acknow	-13230
▁behave	-13231
▁candid	-13232
▁geheim	-13233
▁kaufte	-13234
▁konsum	-13235
▁machst	-13236
▁planen	-13237
▁plenty	-13238
▁prices	-13239
▁wütend	-13240
ineering	-13241
▁Analyse	-13242
▁Islamic	-13243
▁Italien	-13244
▁grossen	-13245
▁herself	-13246
▁license	-13247
▁liefert	-13248
▁neither	-13249
▁orchest	-13250
▁vessels	-13251
▁Autismus	-13252
▁Epidemie	-13253
▁Erfinder	-13254
▁Weibchen	-13255
▁berühren	-13256
▁involves	-13257
▁maintain	-13258
▁recommen	-13259
▁traveled	-13260
▁vielmehr	-13261
▁visuelle	-13262
▁Konflikte	-13263
▁anzusehen	-13264
▁conflicts	-13265
▁denselben	-13266
▁prototype	-13267
▁uncertain	-13268
▁Funktionen	-13269
▁besonderen	-13270
▁vorsichtig	-13271
▁wundervoll	-13272
▁astonishing	-13273
▁technischen	-13274
▁Mathematiker	-13275
▁leidenschaft	-13276
▁interessanten	-13277
lu	-13278
zz	-13279
aze	-13280
oen	-13281
▁Ku	-13282
Aber	-13283
erzä	-13284
pril	-13285
quis	-13286
rome	-13287
sely	-13288
ubes	-13289
yers	-13290
▁Dec	-13291
▁Tib	-13292
▁tea	-13293
angle	-13294
auten	-13295
eters	-13296
grade	-13297
hlend	-13298
isses	-13299
rechn	-13300
using	-13301
▁1900	-13302
▁Diff	-13303
▁Glet	-13304
▁Haar	-13305
▁Hung	-13306
▁SETI	-13307
▁Turn	-13308
▁gray	-13309
▁laug	-13310
▁läng	-13311
bringt	-13312
gänger	-13313
örtern	-13314
▁Absol	-13315
▁Buddh	-13316
▁Delhi	-13317
▁Guten	-13318
▁Harry	-13319
▁Smart	-13320
▁Woman	-13321
▁Zähne	-13322
▁honey	-13323
▁males	-13324
▁sales	-13325
brochen	-13326
gemacht	-13327
osphere	-13328
▁Aufbau	-13329
▁Gandhi	-13330
▁Reihen	-13331
▁Sprung	-13332
▁clinic	-13333
▁fabric	-13334
▁immune	-13335
▁lebend	-13336
▁neigen	-13337
▁oberen	-13338
▁pandem	-13339
▁phrase	-13340
▁rising	-13341
▁spoken	-13342
▁Anstieg	-13343
▁Nations	-13344
▁dankbar	-13345
▁erneuer	-13346
▁geteilt	-13347
▁intense	-13348
▁painful	-13349
▁schwere	-13350
▁Atlantic	-13351
▁Richtige	-13352
▁Schulter	-13353
▁Symptome	-13354
▁concepts	-13355
▁erklärte	-13356
▁höchsten	-13357
▁kreative	-13358
▁seltsame	-13359
produktion	-13360
riedenheit	-13361
▁Gespräche	-13362
▁Schreiben	-13363
▁beitragen	-13364
▁chemische	-13365
▁destroyed	-13366
▁emergency	-13367
▁precisely	-13368
▁primitive	-13369
▁weltweite	-13370
▁commitment	-13371
▁exhibition	-13372
▁controlling	-13373
▁entsprechen	-13374
▁genetischen	-13375
▁Kapitalismus	-13376
▁productivity	-13377
▁Investitionen	-13378
▁Nachbarschaft	-13379
En	-13380
OK	-13381
any	-13382
obs	-13383
▁Gi	-13384
agte	-13385
iday	-13386
innt	-13387
plom	-13388
prim	-13389
rand	-13390
utch	-13391
wass	-13392
▁Paz	-13393
▁Vin	-13394
▁irr	-13395
anzös	-13396
estet	-13397
ikale	-13398
iller	-13399
meter	-13400
ohlen	-13401
quent	-13402
while	-13403
ämpft	-13404
▁Dick	-13405
▁Girl	-13406
▁Haie	-13407
▁Nutz	-13408
▁inkl	-13409
▁pour	-13410
▁scan	-13411
▁seek	-13412
anlage	-13413
cepted	-13414
kultur	-13415
lernen	-13416
stücke	-13417
yright	-13418
▁Level	-13419
▁Sagen	-13420
▁Stick	-13421
▁accum	-13422
▁femin	-13423
▁jenen	-13424
▁tries	-13425
▁usual	-13426
▁worum	-13427
▁Extrem	-13428
▁Januar	-13429
▁Umgang	-13430
▁escape	-13431
▁extend	-13432
▁fliegt	-13433
▁hearts	-13434
▁herein	-13435
▁narrow	-13436
▁rescue	-13437
▁soweit	-13438
äuschung	-13439
▁Clinton	-13440
▁Klavier	-13441
▁appears	-13442
▁bizarre	-13443
▁efforts	-13444
▁entered	-13445
▁französ	-13446
▁habitat	-13447
▁muscles	-13448
▁stimmen	-13449
ianischen	-13450
▁academic	-13451
▁befreien	-13452
▁breaking	-13453
▁diabetes	-13454
▁disorder	-13455
▁download	-13456
▁flexible	-13457
▁laughing	-13458
▁recovery	-13459
▁verfolgt	-13460
▁winzigen	-13461
▁Überwach	-13462
ungssystem	-13463
▁Fundament	-13464
▁Umständen	-13465
▁curiosity	-13466
▁furniture	-13467
▁gestartet	-13468
▁gezwungen	-13469
▁accessible	-13470
▁personality	-13471
▁biologischen	-13472
▁Kommunikations	-13473
lor	-13474
äck	-13475
änz	-13476
amie	-13477
onic	-13478
orld	-13479
phas	-13480
zero	-13481
▁193	-13482
▁Fal	-13483
▁Kuh	-13484
▁Wen	-13485
▁adm	-13486
▁hug	-13487
▁ink	-13488
▁pip	-13489
▁ärm	-13490
cence	-13491
fähig	-13492
ioxid	-13493
osing	-13494
ralen	-13495
range	-13496
viele	-13497
▁Carl	-13498
▁Chip	-13499
▁Wolf	-13500
▁brow	-13501
▁denk	-13502
▁diox	-13503
▁limb	-13504
acular	-13505
ienste	-13506
melzen	-13507
ptions	-13508
ziplin	-13509
▁Aller	-13510
▁Griff	-13511
▁Katze	-13512
▁liver	-13513
▁ruhig	-13514
▁schüt	-13515
▁tasks	-13516
▁title	-13517
▁unvor	-13518
▁utter	-13519
▁öfter	-13520
izabeth	-13521
▁Columb	-13522
▁Marken	-13523
▁Niveau	-13524
▁colony	-13525
▁einzuf	-13526
▁gewann	-13527
▁heroes	-13528
▁legisl	-13529
▁lovely	-13530
▁pocket	-13531
▁surely	-13532
▁winzig	-13533
▁Bericht	-13534
▁Protein	-13535
▁Treffen	-13536
▁concert	-13537
▁divided	-13538
▁finance	-13539
▁protest	-13540
▁wieviel	-13541
▁Hinblick	-13542
▁appeared	-13543
▁attached	-13544
▁erfüllen	-13545
▁gelassen	-13546
▁gemessen	-13547
▁imagined	-13548
▁manifest	-13549
▁reaching	-13550
▁Vorschlag	-13551
▁berechnen	-13552
▁customers	-13553
▁exception	-13554
▁inspiring	-13555
▁translate	-13556
ischerweise	-13557
▁Mitglieder	-13558
▁optimistic	-13559
▁Interessant	-13560
▁Neuigkeiten	-13561
▁organisiert	-13562
▁entertainment	-13563
▁identifizieren	-13564
bi	-13565
▁/	-13566
Ach	-13567
eff	-13568
reu	-13569
ürt	-13570
abin	-13571
appt	-13572
inke	-13573
schn	-13574
yrus	-13575
ühen	-13576
▁192	-13577
▁Mem	-13578
▁woo	-13579
▁wär	-13580
Unter	-13581
acted	-13582
class	-13583
oiden	-13584
▁Anti	-13585
▁Euch	-13586
▁Saal	-13587
▁appe	-13588
▁dumm	-13589
▁ehem	-13590
▁refr	-13591
▁tech	-13592
▁till	-13593
▁wing	-13594
ikatur	-13595
messer	-13596
uition	-13597
▁Enkel	-13598
▁Hawai	-13599
▁Still	-13600
▁Stone	-13601
▁orbit	-13602
▁shake	-13603
▁smoke	-13604
▁spell	-13605
▁units	-13606
century	-13607
gebiete	-13608
osphäre	-13609
▁Früher	-13610
▁Metern	-13611
▁Portug	-13612
▁Social	-13613
▁Widers	-13614
▁Wright	-13615
▁Wälder	-13616
▁agenda	-13617
▁kaputt	-13618
▁powers	-13619
▁repeat	-13620
▁thrown	-13621
romagnet	-13622
▁Abraham	-13623
▁Montere	-13624
▁Verschw	-13625
▁Vorgang	-13626
▁brechen	-13627
▁density	-13628
▁dignity	-13629
▁dunklen	-13630
▁positiv	-13631
▁Diagnose	-13632
▁Personal	-13633
▁anstelle	-13634
▁leuchten	-13635
▁magnetic	-13636
▁shoulder	-13637
▁sinnvoll	-13638
▁vernünft	-13639
geschlagen	-13640
▁Internets	-13641
▁Plattform	-13642
▁Verfahren	-13643
▁Vergnügen	-13644
▁Verlangen	-13645
▁chocolate	-13646
▁committed	-13647
▁depending	-13648
▁gesammelt	-13649
▁mitnehmen	-13650
▁dazwischen	-13651
▁department	-13652
▁regelmäßig	-13653
▁Alternative	-13654
▁Einfachheit	-13655
▁Katastrophe	-13656
▁chinesische	-13657
▁interacting	-13658
▁Einrichtungen	-13659
▁Gleichgewicht	-13660
BC	-13661
Let	-13662
kra	-13663
ype	-13664
▁29	-13665
ackt	-13666
brid	-13667
fehl	-13668
lies	-13669
ppen	-13670
▁Cou	-13671
▁Seh	-13672
▁Wes	-13673
▁ate	-13674
▁bon	-13675
▁wem	-13676
aders	-13677
aumen	-13678
iente	-13679
oppel	-13680
peare	-13681
riebs	-13682
usted	-13683
▁Farm	-13684
▁Feed	-13685
▁Iron	-13686
▁Kond	-13687
▁Next	-13688
▁Pole	-13689
▁Zero	-13690
▁gefl	-13691
▁jewe	-13692
▁rush	-13693
▁ugly	-13694
folgen	-13695
iratet	-13696
ktoren	-13697
lichem	-13698
▁Bibel	-13699
▁Sorge	-13700
▁Szene	-13701
▁bewir	-13702
▁hoher	-13703
▁korre	-13704
▁könne	-13705
▁pyram	-13706
▁therm	-13707
▁yield	-13708
▁youth	-13709
problem	-13710
quently	-13711
uchtung	-13712
▁Atomen	-13713
▁Church	-13714
▁Großen	-13715
▁Höhlen	-13716
▁Michel	-13717
▁Reisen	-13718
▁divide	-13719
▁eradic	-13720
▁linear	-13721
▁stirbt	-13722
▁verlor	-13723
▁wenden	-13724
American	-13725
gelassen	-13726
▁Muskeln	-13727
▁Ursache	-13728
▁aspects	-13729
▁ceiling	-13730
▁cheaper	-13731
▁dioxide	-13732
▁erinner	-13733
▁gesetzt	-13734
▁höheren	-13735
▁militär	-13736
▁monitor	-13737
▁whereas	-13738
ränkungen	-13739
▁Behinder	-13740
▁Fahrzeug	-13741
▁Sensoren	-13742
▁achieved	-13743
▁dominant	-13744
▁embedded	-13745
▁gründete	-13746
▁hierarch	-13747
▁hindurch	-13748
▁riesiges	-13749
▁sandwich	-13750
▁Belohnung	-13751
▁Entschuld	-13752
▁ausmachen	-13753
▁physische	-13754
▁virtually	-13755
▁Geschäftsm	-13756
▁angemessen	-13757
▁reparieren	-13758
▁volunteers	-13759
▁glücklicher	-13760
▁wunderschöne	-13761
wa	-13762
via	-13763
▁Hu	-13764
▁JA	-13765
▁JF	-13766
▁Sn	-13767
▁är	-13768
bart	-13769
idet	-13770
ockt	-13771
▁Bef	-13772
▁CEO	-13773
▁Kos	-13774
▁Lux	-13775
▁Prü	-13776
▁enl	-13777
▁tip	-13778
gehör	-13779
riffe	-13780
rückt	-13781
▁Grie	-13782
▁NGOs	-13783
▁Real	-13784
▁axis	-13785
▁cute	-13786
▁flip	-13787
▁glac	-13788
▁warf	-13789
gender	-13790
klasse	-13791
wählen	-13792
▁April	-13793
▁Beton	-13794
▁Front	-13795
▁Gebur	-13796
▁Knopf	-13797
▁Küche	-13798
▁Ocean	-13799
▁Sechs	-13800
▁aband	-13801
▁advoc	-13802
▁alien	-13803
▁brach	-13804
▁dense	-13805
▁schol	-13806
▁sheep	-13807
▁verur	-13808
gencies	-13809
▁50,000	-13810
▁Geruch	-13811
▁Organe	-13812
▁Teufel	-13813
▁bildet	-13814
▁conven	-13815
▁hassen	-13816
▁ignore	-13817
▁kommer	-13818
gression	-13819
▁Charlie	-13820
▁Flächen	-13821
▁Konstru	-13822
▁Röntgen	-13823
▁Skelett	-13824
▁Spinnen	-13825
▁bicycle	-13826
▁distant	-13827
▁footage	-13828
▁lernten	-13829
▁reflekt	-13830
▁section	-13831
technolog	-13832
ulationen	-13833
▁Ausnahme	-13834
▁Gedichte	-13835
▁Monterey	-13836
▁Prozesse	-13837
▁estimate	-13838
▁guarante	-13839
▁heiraten	-13840
▁reported	-13841
▁shooting	-13842
▁veränder	-13843
▁apartment	-13844
▁colleague	-13845
▁dimension	-13846
▁insurance	-13847
▁Strategien	-13848
▁incentives	-13849
▁langweilig	-13850
▁recognized	-13851
▁Komponenten	-13852
▁Präsidenten	-13853
▁analysieren	-13854
▁zurückgehen	-13855
▁photographer	-13856
▁neighborhoods	-13857
gu	-13858
arp	-13859
ela	-13860
hew	-13861
sec	-13862
top	-13863
öch	-13864
▁37	-13865
▁Ka	-13866
▁TK	-13867
▁Wa	-13868
cont	-13869
osit	-13870
vier	-13871
▁Dir	-13872
▁Fro	-13873
ading	-13874
athon	-13875
fined	-13876
oenix	-13877
ätten	-13878
ürzen	-13879
▁Bier	-13880
▁Glüh	-13881
▁Ruhe	-13882
▁Term	-13883
▁ausb	-13884
▁cens	-13885
▁fulf	-13886
▁lieb	-13887
▁sink	-13888
▁toys	-13889
▁triv	-13890
action	-13891
ailand	-13892
graben	-13893
ighted	-13894
▁Camer	-13895
▁Prior	-13896
▁Subst	-13897
▁Trend	-13898
▁brown	-13899
▁chest	-13900
▁einzu	-13901
▁elder	-13902
▁knock	-13903
▁meter	-13904
▁purch	-13905
▁route	-13906
▁saßen	-13907
▁schme	-13908
▁20,000	-13909
▁Bedarf	-13910
▁Dialog	-13911
▁Proben	-13912
▁Spring	-13913
▁Vortra	-13914
▁Zurück	-13915
▁frozen	-13916
▁keines	-13917
▁ladies	-13918
▁neural	-13919
▁qualif	-13920
▁schaue	-13921
▁signed	-13922
▁silent	-13923
▁wahren	-13924
▁Blätter	-13925
▁Dadurch	-13926
▁Dutzend	-13927
▁Lächeln	-13928
▁balloon	-13929
▁crucial	-13930
▁entfern	-13931
▁mächtig	-13932
▁opposed	-13933
▁Africans	-13934
▁Aufstieg	-13935
▁Virginia	-13936
▁accepted	-13937
▁criminal	-13938
▁dolphins	-13939
▁equality	-13940
▁erwähnen	-13941
▁horizont	-13942
▁provides	-13943
▁spannend	-13944
▁verzweif	-13945
▁Ökonomen	-13946
▁Übergang	-13947
▁berichtet	-13948
▁describes	-13949
▁elsewhere	-13950
▁mittleren	-13951
▁privilege	-13952
▁weibliche	-13953
▁Schwestern	-13954
▁collecting	-13955
▁ignorieren	-13956
▁motivation	-13957
▁transparen	-13958
▁electronics	-13959
▁irgendeinem	-13960
▁Ungleichheit	-13961
▁Verbesserung	-13962
▁elektrischen	-13963
▁mittlerweile	-13964
▁Universitäten	-13965
▁traditionelle	-13966
“.	-13967
eds	-13968
jet	-13969
war	-13970
züg	-13971
▁BM	-13972
▁EM	-13973
▁Rö	-13974
AIDS	-13975
ahen	-13976
atts	-13977
fine	-13978
rest	-13979
rick	-13980
rins	-13981
ürzt	-13982
▁Ara	-13983
▁Mov	-13984
▁Neg	-13985
▁Ohr	-13986
▁Sag	-13987
▁Wut	-13988
▁les	-13989
▁lit	-13990
There	-13991
geord	-13992
habil	-13993
itial	-13994
keley	-13995
küste	-13996
ouver	-13997
ruppe	-13998
schle	-13999
▁2020	-14000
▁Cour	-14001
▁Fing	-14002
▁Füße	-14003
▁Laur	-14004
▁adop	-14005
▁klug	-14006
▁prev	-14007
▁sche	-14008
annter	-14009
dollar	-14010
ersten	-14011
fältig	-14012
geräte	-14013
usalem	-14014
▁Hitze	-14015
▁Hören	-14016
▁Logik	-14017
▁Poliz	-14018
▁Voice	-14019
▁finds	-14020
▁illeg	-14021
▁jenem	-14022
▁likes	-14023
▁prost	-14024
▁reput	-14025
▁stieg	-14026
▁tired	-14027
▁womit	-14028
ichtung	-14029
spieler	-14030
staaten	-14031
▁Medium	-14032
▁beseit	-14033
▁billig	-14034
▁distra	-14035
▁evolve	-14036
▁freund	-14037
▁legacy	-14038
▁oldest	-14039
▁retire	-14040
▁reveal	-14041
▁shadow	-14042
▁öffnet	-14043
aufgaben	-14044
▁Neander	-14045
▁Wurzeln	-14046
▁beliefs	-14047
▁kreiert	-14048
▁scratch	-14049
▁suicide	-14050
▁trigger	-14051
▁wanting	-14052
▁Children	-14053
▁Gebieten	-14054
▁Narrator	-14055
▁begrenzt	-14056
▁captured	-14057
▁contains	-14058
▁meetings	-14059
handlungen	-14060
▁Toiletten	-14061
▁Weihnacht	-14062
▁backwards	-14063
▁continues	-14064
▁dedicated	-14065
▁generated	-14066
▁telescope	-14067
▁Jedenfalls	-14068
▁Prototypen	-14069
▁arabischen	-14070
▁contribute	-14071
▁emotionale	-14072
▁engagement	-14073
▁simplicity	-14074
▁strategies	-14075
▁Philosophie	-14076
▁disappeared	-14077
▁spectacular	-14078
▁wundervolle	-14079
▁Unternehmens	-14080
▁Menschlichkeit	-14081
üd	-14082
?",	-14083
And	-14084
lan	-14085
achs	-14086
ktis	-14087
nern	-14088
rons	-14089
städ	-14090
▁Jay	-14091
▁cup	-14092
▁nit	-14093
▁ras	-14094
amine	-14095
athed	-14096
gebra	-14097
iance	-14098
ikely	-14099
kohol	-14100
spect	-14101
ächer	-14102
▁Doug	-14103
▁Jord	-14104
▁Juni	-14105
▁Myth	-14106
▁Pink	-14107
▁Work	-14108
▁ages	-14109
▁fung	-14110
▁halt	-14111
▁häss	-14112
chtern	-14113
handel	-14114
körper	-14115
ropfen	-14116
▁Hyper	-14117
▁Simon	-14118
▁abund	-14119
▁aside	-14120
▁dicht	-14121
▁drove	-14122
▁exakt	-14123
▁fluid	-14124
▁gelie	-14125
▁islam	-14126
▁japan	-14127
▁judge	-14128
▁laser	-14129
▁lokal	-14130
▁verpf	-14131
▁wirft	-14132
Projekt	-14133
erkrank	-14134
schafft	-14135
▁Besitz	-14136
▁Erzähl	-14137
▁Fahrer	-14138
▁Glücks	-14139
▁Kommen	-14140
▁Leiden	-14141
▁Palest	-14142
▁Tränen	-14143
▁dialog	-14144
▁drehte	-14145
▁hardly	-14146
▁hungry	-14147
▁interf	-14148
▁paraly	-14149
▁scales	-14150
▁tricks	-14151
▁vierte	-14152
▁Handeln	-14153
▁benutze	-14154
▁exposed	-14155
▁instant	-14156
▁pretend	-14157
▁reflect	-14158
▁removed	-14159
▁stammen	-14160
▁tragedy	-14161
▁änderte	-14162
▁Batterie	-14163
▁Pinguine	-14164
▁Schlagze	-14165
▁ausgesch	-14166
▁confront	-14167
▁controls	-14168
▁darkness	-14169
▁frighten	-14170
▁globally	-14171
▁minister	-14172
▁produces	-14173
▁schickte	-14174
▁sozialer	-14175
▁theories	-14176
▁verletzt	-14177
▁vertical	-14178
▁Effizienz	-14179
▁Höhepunkt	-14180
▁Treibhaus	-14181
▁authentic	-14182
▁gegenwärt	-14183
▁insgesamt	-14184
▁neugierig	-14185
▁politisch	-14186
▁reduction	-14187
▁searching	-14188
▁boundaries	-14189
▁earthquake	-14190
▁functional	-14191
▁gemeinnütz	-14192
▁historical	-14193
▁nachhaltig	-14194
▁Anwendungen	-14195
▁Konsumenten	-14196
▁Shakespeare	-14197
▁anscheinend	-14198
▁innovations	-14199
▁schizophren	-14200
▁schlimmsten	-14201
▁unternehmen	-14202
▁Katastrophen	-14203
▁Medikamenten	-14204
▁neuroscience	-14205
vy	-14206
yo	-14207
Auf	-14208
hma	-14209
lem	-14210
pal	-14211
til	-14212
urd	-14213
zur	-14214
azin	-14215
case	-14216
eral	-14217
hold	-14218
miss	-14219
uana	-14220
▁Kok	-14221
▁Lad	-14222
▁wet	-14223
gänge	-14224
lösen	-14225
worth	-14226
▁2003	-14227
▁Brad	-14228
▁Ehre	-14229
▁Klar	-14230
▁Koch	-14231
▁Näch	-14232
▁Wäre	-14233
▁aust	-14234
▁defe	-14235
▁dump	-14236
▁leap	-14237
▁rely	-14238
etball	-14239
etzung	-14240
mensch	-14241
▁Fried	-14242
▁Gramm	-14243
▁Leber	-14244
▁Louis	-14245
▁Robot	-14246
▁Serie	-14247
▁Wände	-14248
▁angle	-14249
▁begrü	-14250
▁crack	-14251
▁fruit	-14252
▁geöff	-14253
▁leist	-14254
▁recyc	-14255
▁reefs	-14256
▁seeds	-14257
▁veter	-14258
forward	-14259
ospiele	-14260
projekt	-14261
quellen	-14262
▁Indeed	-14263
▁Joshua	-14264
▁Muskel	-14265
▁Nature	-14266
▁Rwanda	-14267
▁actors	-14268
▁chosen	-14269
▁crying	-14270
▁echtes	-14271
▁facial	-14272
▁feiern	-14273
▁formal	-14274
▁inject	-14275
▁innere	-14276
▁intuit	-14277
▁nahezu	-14278
▁rating	-14279
▁trends	-14280
▁weapon	-14281
children	-14282
▁Büchern	-14283
▁Eastern	-14284
▁Schokol	-14285
▁anthrop	-14286
▁charity	-14287
▁implant	-14288
▁lebende	-14289
▁lecture	-14290
▁letting	-14291
▁methods	-14292
▁radikal	-14293
▁richten	-14294
▁touched	-14295
▁Feedback	-14296
▁eröffnet	-14297
▁football	-14298
▁laughter	-14299
▁northern	-14300
▁organize	-14301
▁stations	-14302
▁unlikely	-14303
▁Elizabeth	-14304
▁Karikatur	-14305
▁Nachfrage	-14306
▁abgesehen	-14307
▁indischen	-14308
▁intention	-14309
▁Handlungen	-14310
▁Motivation	-14311
▁Organismus	-14312
▁Wichtigste	-14313
▁governance	-14314
▁microscope	-14315
▁Oberflächen	-14316
▁Transparenz	-14317
▁advertising	-14318
▁ingredients	-14319
▁philanthrop	-14320
▁photography	-14321
▁universities	-14322
AA	-14323
CH	-14324
Fi	-14325
▁4.	-14326
▁AM	-14327
▁RM	-14328
▁UC	-14329
▁kg	-14330
kopf	-14331
oots	-14332
äger	-14333
▁190	-14334
▁Göt	-14335
▁Ign	-14336
▁Oct	-14337
▁Sav	-14338
▁enh	-14339
Mails	-14340
athol	-14341
olera	-14342
ringe	-14343
thiop	-14344
ttern	-14345
▁2001	-14346
▁Brut	-14347
▁Mahl	-14348
▁Muse	-14349
▁beer	-14350
▁choo	-14351
▁dish	-14352
▁eval	-14353
▁hing	-14354
▁mail	-14355
▁umso	-14356
sprach	-14357
vested	-14358
▁Never	-14359
▁Staub	-14360
▁Wärme	-14361
▁blank	-14362
▁dient	-14363
▁minor	-14364
▁views	-14365
▁übern	-14366
angehen	-14367
unclear	-14368
wandeln	-14369
▁Katzen	-14370
▁Nathan	-14371
▁Preise	-14372
▁Ratten	-14373
▁Rollen	-14374
▁Werden	-14375
▁aufzus	-14376
▁auszud	-14377
▁beides	-14378
▁bother	-14379
▁degrad	-14380
▁durchd	-14381
▁locked	-14382
▁missed	-14383
▁muslim	-14384
▁underg	-14385
▁verlei	-14386
ierendes	-14387
mögliche	-14388
▁Everest	-14389
▁attract	-14390
▁essence	-14391
▁gewöhnt	-14392
▁graphic	-14393
▁inspire	-14394
▁suspect	-14395
▁symbols	-14396
▁unsicht	-14397
▁verletz	-14398
▁Berkeley	-14399
▁Fantasie	-14400
▁Teleskop	-14401
▁Umstände	-14402
▁aircraft	-14403
▁aktuelle	-14404
▁ausmacht	-14405
▁früheren	-14406
▁nebenbei	-14407
▁schwerer	-14408
▁wahrhaft	-14409
▁überlebt	-14410
▁Architekt	-14411
▁Bedürfnis	-14412
▁Techniken	-14413
▁Versuchen	-14414
▁infiziert	-14415
▁mechanics	-14416
▁inzwischen	-14417
▁protecting	-14418
▁probability	-14419
▁underground	-14420
Reg	-14421
▁Bu	-14422
itis	-14423
reme	-14424
rich	-14425
utan	-14426
öten	-14427
▁15-	-14428
▁Fer	-14429
▁Seb	-14430
▁Syl	-14431
▁Tri	-14432
▁Van	-14433
▁ham	-14434
iefer	-14435
kunst	-14436
rence	-14437
ronen	-14438
▁..."	-14439
▁Held	-14440
▁Konz	-14441
▁anfü	-14442
▁batt	-14443
▁debt	-14444
▁dick	-14445
▁flog	-14446
▁golf	-14447
▁mold	-14448
▁spin	-14449
enness	-14450
fahrer	-14451
istern	-14452
tempor	-14453
uelles	-14454
vision	-14455
zenten	-14456
▁Craig	-14457
▁Ernst	-14458
▁Pferd	-14459
▁Risik	-14460
▁breit	-14461
▁chief	-14462
▁march	-14463
▁skull	-14464
▁stets	-14465
äuschen	-14466
▁Disney	-14467
▁Gipfel	-14468
▁Jewish	-14469
▁Klinik	-14470
▁Mannes	-14471
▁Really	-14472
▁Würden	-14473
▁barely	-14474
▁borrow	-14475
▁enthus	-14476
▁intent	-14477
▁offene	-14478
▁poster	-14479
▁tenden	-14480
inkommen	-14481
▁Erstaun	-14482
▁Fremden	-14483
▁amongst	-14484
▁constru	-14485
▁enormen	-14486
▁ethical	-14487
▁höchste	-14488
▁jeweils	-14489
▁origami	-14490
▁setzten	-14491
▁trocken	-14492
▁Arbeitsk	-14493
▁Biologen	-14494
▁Einblick	-14495
▁Fotograf	-14496
▁Hinweise	-14497
▁Konzentr	-14498
▁Oxytocin	-14499
▁ausgehen	-14500
▁getestet	-14501
▁hingehen	-14502
▁Maßnahmen	-14503
▁antworten	-14504
▁benutzten	-14505
▁musicians	-14506
▁nachdenkt	-14507
▁nationale	-14508
▁Versorgung	-14509
▁affordable	-14510
▁resolution	-14511
▁treatments	-14512
▁demonstrate	-14513
▁Globalisierung	-14514
Fl	-14515
isa	-14516
oie	-14517
pan	-14518
▁0.	-14519
▁72	-14520
ahrt	-14521
beln	-14522
etik	-14523
lime	-14524
lter	-14525
male	-14526
olas	-14527
unft	-14528
zone	-14529
äher	-14530
▁17.	-14531
▁Bek	-14532
▁obl	-14533
▁rub	-14534
▁ört	-14535
deten	-14536
embly	-14537
going	-14538
romos	-14539
stern	-14540
wohnt	-14541
▁Beat	-14542
▁Kühl	-14543
▁Line	-14544
▁Love	-14545
▁Mall	-14546
▁Mumb	-14547
▁Stil	-14548
▁Vict	-14549
▁bias	-14550
▁boss	-14551
▁dust	-14552
▁east	-14553
▁eind	-14554
▁fram	-14555
▁glad	-14556
▁quer	-14557
▁vorn	-14558
Global	-14559
archie	-14560
iellen	-14561
lessly	-14562
schild	-14563
school	-14564
straße	-14565
wellen	-14566
▁Bruce	-14567
▁Indus	-14568
▁Marke	-14569
▁Santa	-14570
▁Watch	-14571
▁anste	-14572
▁beruh	-14573
▁craft	-14574
▁crops	-14575
▁dirty	-14576
▁fifth	-14577
▁guide	-14578
▁heben	-14579
▁pione	-14580
▁realm	-14581
▁stops	-14582
▁tears	-14583
▁wings	-14584
bleiben	-14585
▁Abhäng	-14586
▁achiev	-14587
▁adding	-14588
▁ehemal	-14589
▁intrig	-14590
▁invite	-14591
▁layers	-14592
▁simult	-14593
▁smooth	-14594
▁stages	-14595
▁tribes	-14596
gefallen	-14597
gleichen	-14598
jähriger	-14599
▁Alkohol	-14600
▁Brother	-14601
▁Flederm	-14602
▁Kinders	-14603
▁bedeckt	-14604
▁geraten	-14605
▁heutige	-14606
▁liberal	-14607
▁tauchen	-14608
▁verließ	-14609
▁widersp	-14610
▁zuhören	-14611
akthrough	-14612
aktivität	-14613
volutions	-14614
▁Diplomat	-14615
▁Schweine	-14616
▁Vermögen	-14617
▁aufrecht	-14618
▁contract	-14619
▁einziges	-14620
▁kleinere	-14621
▁lighting	-14622
▁pregnant	-14623
▁privaten	-14624
▁symmetry	-14625
▁Übrigens	-14626
▁Ansichten	-14627
▁accidents	-14628
▁empfinden	-14629
▁implement	-14630
▁kommerzie	-14631
▁physicist	-14632
▁ähnlichen	-14633
▁apparently	-14634
▁verstecken	-14635
▁wiederholt	-14636
▁wirklichen	-14637
▁vorgestellt	-14638
▁chinesischen	-14639
▁festgestellt	-14640
▁Geschichtenerzä	-14641
idi	-14642
obb	-14643
ozi	-14644
pat	-14645
▁48	-14646
▁MR	-14647
▁Us	-14648
ahar	-14649
akul	-14650
eing	-14651
gebä	-14652
mass	-14653
meid	-14654
strö	-14655
ulum	-14656
▁Dop	-14657
▁Six	-14658
▁Soc	-14659
▁Tok	-14660
▁hip	-14661
▁lap	-14662
▁liv	-14663
▁sle	-14664
liest	-14665
selbe	-14666
äufer	-14667
▁Appl	-14668
▁Fels	-14669
▁Pitt	-14670
▁Sier	-14671
▁Sper	-14672
▁Wirk	-14673
▁dive	-14674
▁gefr	-14675
▁hire	-14676
Wissen	-14677
▁2000,	-14678
▁2007,	-14679
▁2009,	-14680
▁Bible	-14681
▁Figur	-14682
▁Frühl	-14683
▁Lesen	-14684
▁Schon	-14685
▁Somal	-14686
▁Waffe	-14687
▁Werke	-14688
▁altes	-14689
▁conce	-14690
▁drill	-14691
▁freie	-14692
▁miser	-14693
▁verbr	-14694
▁wound	-14695
cellent	-14696
politik	-14697
ylinder	-14698
▁Mozart	-14699
▁Tasche	-14700
▁Varian	-14701
▁allgem	-14702
▁commod	-14703
▁emphas	-14704
▁fertil	-14705
▁fließt	-14706
▁keinem	-14707
▁mochte	-14708
▁poison	-14709
▁stable	-14710
▁umwelt	-14711
▁untern	-14712
▁verbre	-14713
▁waters	-14714
▁ältere	-14715
▁Anthrop	-14716
▁Betrieb	-14717
▁Lehrern	-14718
▁Pflanze	-14719
▁Seattle	-14720
▁Sequenz	-14721
▁advance	-14722
▁consume	-14723
▁defense	-14724
▁extract	-14725
▁granted	-14726
▁indigen	-14727
▁interse	-14728
▁paradox	-14729
▁prosper	-14730
▁shelter	-14731
▁suspend	-14732
▁visited	-14733
▁wheelch	-14734
▁Gebrauch	-14735
▁Gebäudes	-14736
▁isolated	-14737
▁official	-14738
▁textbook	-14739
▁Änderung	-14740
▁Jerusalem	-14741
▁Resultate	-14742
▁aktuellen	-14743
▁erhielten	-14744
▁gestaltet	-14745
▁inklusive	-14746
▁letztlich	-14747
▁passwords	-14748
▁strangers	-14749
▁uncomfort	-14750
▁Department	-14751
▁Rückenmark	-14752
▁mechanisms	-14753
▁mysterious	-14754
▁terrorists	-14755
▁vereinfach	-14756
▁übersetzen	-14757
▁diskutieren	-14758
▁kulturellen	-14759
▁breakthrough	-14760
▁transparency	-14761
organisationen	-14762
▁communications	-14763
▁+	-14764
Can	-14765
Und	-14766
eid	-14767
iva	-14768
kes	-14769
nik	-14770
pox	-14771
▁Kh	-14772
fäll	-14773
oole	-14774
stör	-14775
viet	-14776
üten	-14777
▁130	-14778
▁Bür	-14779
▁Zie	-14780
▁dum	-14781
▁fed	-14782
▁lux	-14783
▁wed	-14784
cular	-14785
dauer	-14786
größe	-14787
▁Abed	-14788
▁Data	-14789
▁Rein	-14790
▁Thun	-14791
▁anst	-14792
▁entt	-14793
▁lift	-14794
▁peer	-14795
▁trat	-14796
▁tuna	-14797
▁unin	-14798
▁Ökos	-14799
breite	-14800
enschw	-14801
räumen	-14802
▁Anrei	-14803
▁Autob	-14804
▁Italy	-14805
▁Künst	-14806
▁Links	-14807
▁balls	-14808
▁disag	-14809
▁enthü	-14810
▁legte	-14811
▁minus	-14812
▁recru	-14813
▁relax	-14814
▁seats	-14815
▁yours	-14816
version	-14817
▁Anweis	-14818
▁Bomben	-14819
▁Mumbai	-14820
▁Philip	-14821
▁Vagina	-14822
▁Vorder	-14823
▁erlaub	-14824
▁output	-14825
▁shrimp	-14826
▁strand	-14827
▁transc	-14828
▁wartet	-14829
▁Atlanta	-14830
▁Schnell	-14831
▁gesunde	-14832
▁initial	-14833
▁passing	-14834
▁pointed	-14835
▁pulling	-14836
▁Baseball	-14837
▁Erschein	-14838
▁Gefahren	-14839
▁Griechen	-14840
▁Jonathan	-14841
▁Mitglied	-14842
▁Schwarze	-14843
▁Therapie	-14844
▁anbieten	-14845
▁bekannte	-14846
▁bewahren	-14847
▁database	-14848
▁external	-14849
▁geworfen	-14850
▁geöffnet	-14851
▁jährlich	-14852
▁surfaces	-14853
▁vorwärts	-14854
▁Abenteuer	-14855
▁Statistik	-14856
▁announced	-14857
▁bedeutend	-14858
▁depressed	-14859
▁elections	-14860
▁verpflich	-14861
▁verrückte	-14862
▁Ausrüstung	-14863
▁Entstehung	-14864
▁afterwards	-14865
▁ecosystems	-14866
▁Unterwasser	-14867
▁Videospiele	-14868
▁chimpanzees	-14869
▁einzigartig	-14870
▁zukünftigen	-14871
▁hinsichtlich	-14872
▁surprisingly	-14873
▁Zufriedenheit	-14874
▁beeindruckend	-14875
▁repräsentiert	-14876
Cl	-14877
IN	-14878
aws	-14879
isy	-14880
udd	-14881
zum	-14882
▁46	-14883
▁AT	-14884
▁DP	-14885
Bahn	-14886
baum	-14887
ilit	-14888
ktar	-14889
phys	-14890
stal	-14891
uens	-14892
▁Amb	-14893
▁Bez	-14894
▁Dal	-14895
▁Jup	-14896
▁bot	-14897
▁tum	-14898
allow	-14899
krise	-14900
mächt	-14901
reise	-14902
▁2030	-14903
▁Astr	-14904
▁Coca	-14905
▁Egal	-14906
▁Hind	-14907
▁Jill	-14908
▁Sund	-14909
▁bask	-14910
bsites	-14911
fällig	-14912
gested	-14913
spanne	-14914
spunkt	-14915
ubbles	-14916
▁Achse	-14917
▁Extra	-14918
▁Haare	-14919
▁Keith	-14920
▁Lewis	-14921
[...]
